{
  "version": "1.0",
  "truncation": null,
  "padding": null,
  "added_tokens": [
    {
      "id": 0,
      "content": "[UNK]",
      "single_word": false,
      "lstrip": false,
      "rstrip": false,
      "normalized": false,
      "special": true
    },
    {
      "id": 1,
      "content": "[CLS]",
      "single_word": false,
      "lstrip": false,
      "rstrip": false,
      "normalized": false,
      "special": true
    },
    {
      "id": 2,
      "content": "[SEP]",
      "single_word": false,
      "lstrip": false,
      "rstrip": false,
      "normalized": false,
      "special": true
    },
    {
      "id": 3,
      "content": "[PAD]",
      "single_word": false,
      "lstrip": false,
      "rstrip": false,
      "normalized": false,
      "special": true
    },
    {
      "id": 4,
      "content": "[MASK]",
      "single_word": false,
      "lstrip": false,
      "rstrip": false,
      "normalized": false,
      "special": true
    },
    {
      "id": 5,
      "content": "<|endoftext|>",
      "single_word": false,
      "lstrip": false,
      "rstrip": false,
      "normalized": false,
      "special": true
    }
  ],
  "normalizer": null,
  "pre_tokenizer": {
    "type": "ByteLevel",
    "add_prefix_space": false,
    "trim_offsets": true,
    "use_regex": true
  },
  "post_processor": null,
  "decoder": {
    "type": "ByteLevel",
    "add_prefix_space": true,
    "trim_offsets": true,
    "use_regex": true
  },
  "model": {
    "type": "BPE",
    "dropout": null,
    "unk_token": "[UNK]",
    "continuing_subword_prefix": null,
    "end_of_word_suffix": null,
    "fuse_unk": false,
    "byte_fallback": false,
    "ignore_merges": false,
    "vocab": {
      "[UNK]": 0,
      "[CLS]": 1,
      "[SEP]": 2,
      "[PAD]": 3,
      "[MASK]": 4,
      "<|endoftext|>": 5,
      "!": 6,
      "\"": 7,
      "#": 8,
      "$": 9,
      "%": 10,
      "&": 11,
      "'": 12,
      "(": 13,
      ")": 14,
      "*": 15,
      "+": 16,
      ",": 17,
      "-": 18,
      ".": 19,
      "/": 20,
      "0": 21,
      "1": 22,
      "2": 23,
      "3": 24,
      "4": 25,
      "5": 26,
      "6": 27,
      "7": 28,
      "8": 29,
      "9": 30,
      ":": 31,
      ";": 32,
      "<": 33,
      "=": 34,
      ">": 35,
      "?": 36,
      "@": 37,
      "A": 38,
      "B": 39,
      "C": 40,
      "D": 41,
      "E": 42,
      "F": 43,
      "G": 44,
      "H": 45,
      "I": 46,
      "J": 47,
      "K": 48,
      "L": 49,
      "M": 50,
      "N": 51,
      "O": 52,
      "P": 53,
      "Q": 54,
      "R": 55,
      "S": 56,
      "T": 57,
      "U": 58,
      "V": 59,
      "W": 60,
      "X": 61,
      "Y": 62,
      "Z": 63,
      "[": 64,
      "\\": 65,
      "]": 66,
      "^": 67,
      "_": 68,
      "`": 69,
      "a": 70,
      "b": 71,
      "c": 72,
      "d": 73,
      "e": 74,
      "f": 75,
      "g": 76,
      "h": 77,
      "i": 78,
      "j": 79,
      "k": 80,
      "l": 81,
      "m": 82,
      "n": 83,
      "o": 84,
      "p": 85,
      "q": 86,
      "r": 87,
      "s": 88,
      "t": 89,
      "u": 90,
      "v": 91,
      "w": 92,
      "x": 93,
      "y": 94,
      "z": 95,
      "{": 96,
      "|": 97,
      "}": 98,
      "~": 99,
      "¡": 100,
      "¢": 101,
      "£": 102,
      "¤": 103,
      "¥": 104,
      "¦": 105,
      "§": 106,
      "¨": 107,
      "©": 108,
      "ª": 109,
      "«": 110,
      "¬": 111,
      "®": 112,
      "¯": 113,
      "°": 114,
      "±": 115,
      "²": 116,
      "³": 117,
      "´": 118,
      "µ": 119,
      "¶": 120,
      "·": 121,
      "¸": 122,
      "¹": 123,
      "º": 124,
      "»": 125,
      "¼": 126,
      "½": 127,
      "¾": 128,
      "¿": 129,
      "À": 130,
      "Á": 131,
      "Â": 132,
      "Ã": 133,
      "Ä": 134,
      "Å": 135,
      "Æ": 136,
      "Ç": 137,
      "È": 138,
      "É": 139,
      "Ê": 140,
      "Ë": 141,
      "Ì": 142,
      "Í": 143,
      "Î": 144,
      "Ï": 145,
      "Ð": 146,
      "Ñ": 147,
      "Ò": 148,
      "Ó": 149,
      "Ô": 150,
      "Õ": 151,
      "Ö": 152,
      "×": 153,
      "Ø": 154,
      "Ù": 155,
      "Ú": 156,
      "Û": 157,
      "Ü": 158,
      "Ý": 159,
      "Þ": 160,
      "ß": 161,
      "à": 162,
      "á": 163,
      "â": 164,
      "ã": 165,
      "ä": 166,
      "å": 167,
      "æ": 168,
      "ç": 169,
      "è": 170,
      "é": 171,
      "ê": 172,
      "ë": 173,
      "ì": 174,
      "í": 175,
      "î": 176,
      "ï": 177,
      "ð": 178,
      "ñ": 179,
      "ò": 180,
      "ó": 181,
      "ô": 182,
      "õ": 183,
      "ö": 184,
      "÷": 185,
      "ø": 186,
      "ù": 187,
      "ú": 188,
      "û": 189,
      "ü": 190,
      "ý": 191,
      "þ": 192,
      "ÿ": 193,
      "Ā": 194,
      "ā": 195,
      "Ă": 196,
      "ă": 197,
      "Ą": 198,
      "ą": 199,
      "Ć": 200,
      "ć": 201,
      "Ĉ": 202,
      "ĉ": 203,
      "Ċ": 204,
      "ċ": 205,
      "Č": 206,
      "č": 207,
      "Ď": 208,
      "ď": 209,
      "Đ": 210,
      "đ": 211,
      "Ē": 212,
      "ē": 213,
      "Ĕ": 214,
      "ĕ": 215,
      "Ė": 216,
      "ė": 217,
      "Ę": 218,
      "ę": 219,
      "Ě": 220,
      "ě": 221,
      "Ĝ": 222,
      "ĝ": 223,
      "Ğ": 224,
      "ğ": 225,
      "Ġ": 226,
      "ġ": 227,
      "Ģ": 228,
      "ģ": 229,
      "Ĥ": 230,
      "ĥ": 231,
      "Ħ": 232,
      "ħ": 233,
      "Ĩ": 234,
      "ĩ": 235,
      "Ī": 236,
      "ī": 237,
      "Ĭ": 238,
      "ĭ": 239,
      "Į": 240,
      "į": 241,
      "İ": 242,
      "ı": 243,
      "Ĳ": 244,
      "ĳ": 245,
      "Ĵ": 246,
      "ĵ": 247,
      "Ķ": 248,
      "ķ": 249,
      "ĸ": 250,
      "Ĺ": 251,
      "ĺ": 252,
      "Ļ": 253,
      "ļ": 254,
      "Ľ": 255,
      "ľ": 256,
      "Ŀ": 257,
      "ŀ": 258,
      "Ł": 259,
      "ł": 260,
      "Ń": 261,
      "Ġt": 262,
      "he": 263,
      "Ġa": 264,
      "in": 265,
      "Ġthe": 266,
      "Ġo": 267,
      "re": 268,
      "it": 269,
      "nd": 270,
      "is": 271,
      "Ġs": 272,
      "at": 273,
      "on": 274,
      "er": 275,
      "Ġof": 276,
      "Ġw": 277,
      "en": 278,
      "Ġb": 279,
      "es": 280,
      "al": 281,
      "Ġin": 282,
      "Ġand": 283,
      "an": 284,
      "Ġf": 285,
      "or": 286,
      "Ġm": 287,
      "Ġc": 288,
      "ou": 289,
      "Ġp": 290,
      "ing": 291,
      "ed": 292,
      "Ġth": 293,
      "ion": 294,
      "ar": 295,
      "Ġto": 296,
      "Ġh": 297,
      "Ġd": 298,
      "ic": 299,
      "as": 300,
      "Ġn": 301,
      "Ġis": 302,
      "Ġe": 303,
      "Ġl": 304,
      "Ġit": 305,
      "ce": 306,
      "om": 307,
      "ll": 308,
      "Ġbe": 309,
      "ut": 310,
      "ent": 311,
      "ot": 312,
      "ve": 313,
      "se": 314,
      "ct": 315,
      "st": 316,
      "le": 317,
      "ly": 318,
      "âĢ": 319,
      "ĠA": 320,
      "ow": 321,
      "Ġre": 322,
      "ĠI": 323,
      "im": 324,
      "Ġg": 325,
      "ir": 326,
      "Ġwh": 327,
      "ĠT": 328,
      "ur": 329,
      "Ġon": 330,
      "ig": 331,
      "Ġfor": 332,
      "if": 333,
      "ess": 334,
      "Ġthat": 335,
      "her": 336,
      "Ġu": 337,
      "et": 338,
      "Ġor": 339,
      "ation": 340,
      "id": 341,
      "iv": 342,
      "ra": 343,
      "Ġnot": 344,
      "ith": 345,
      "ay": 346,
      "ld": 347,
      "Ġas": 348,
      "ad": 349,
      "ĠS": 350,
      "Ġcon": 351,
      "ht": 352,
      "Ġan": 353,
      "Ġse": 354,
      "Ġst": 355,
      "Ġwith": 356,
      "ind": 357,
      "and": 358,
      "od": 359,
      "ci": 360,
      "ity": 361,
      "Ġv": 362,
      "ch": 363,
      "am": 364,
      "Ġsu": 365,
      "Ġhe": 366,
      "th": 367,
      "the": 368,
      "ter": 369,
      "ich": 370,
      "ill": 371,
      "Ġby": 372,
      "ĠâĢ": 373,
      "ure": 374,
      "ous": 375,
      "ul": 376,
      "ect": 377,
      "Ġy": 378,
      "ĠM": 379,
      "ro": 380,
      "Ġwhich": 381,
      "lf": 382,
      "Ġex": 383,
      "ge": 384,
      "ak": 385,
      "Ġwe": 386,
      "Ġits": 387,
      "ver": 388,
      "ist": 389,
      "il": 390,
      "ĠThe": 391,
      "ment": 392,
      "ive": 393,
      "Ġbut": 394,
      "res": 395,
      "rom": 396,
      "Ġde": 397,
      "ight": 398,
      "Ġall": 399,
      "Ġare": 400,
      "ence": 401,
      "os": 402,
      "ol": 403,
      "Ġha": 404,
      "ĠP": 405,
      "Ġwor": 406,
      "Ġint": 407,
      "ĠB": 408,
      "ual": 409,
      "ble": 410,
      "Ġthis": 411,
      "ain": 412,
      "Ġmo": 413,
      "pe": 414,
      "Ġfrom": 415,
      "ness": 416,
      "ĠâĢĶ": 417,
      "ers": 418,
      "Ġat": 419,
      "Ġk": 420,
      "Ġyou": 421,
      "The": 422,
      "est": 423,
      "ĠN": 424,
      "ru": 425,
      "ri": 426,
      "Ġun": 427,
      "Ġhis": 428,
      "ate": 429,
      "Ġhas": 430,
      "oug": 431,
      "Ġhave": 432,
      "um": 433,
      "ine": 434,
      "âĢĻ": 435,
      "Ġcom": 436,
      "per": 437,
      "Ġme": 438,
      "Ġcan": 439,
      "sci": 440,
      "ical": 441,
      "ant": 442,
      "of": 443,
      "us": 444,
      "art": 445,
      "ac": 446,
      "pt": 447,
      "em": 448,
      "Ġim": 449,
      "ings": 450,
      "pir": 451,
      "Ġal": 452,
      "Ġthere": 453,
      "Ġr": 454,
      "reat": 455,
      "ĠR": 456,
      "ould": 457,
      "Ġne": 458,
      "ust": 459,
      "now": 460,
      "self": 461,
      "ife": 462,
      "ction": 463,
      "ide": 464,
      "ĠO": 465,
      "og": 466,
      "ha": 467,
      "ĠC": 468,
      "Ġour": 469,
      "ard": 470,
      "scious": 471,
      "Ġman": 472,
      "ĠD": 473,
      "Ġwas": 474,
      "ance": 475,
      "all": 476,
      "ĠH": 477,
      "ĠE": 478,
      "Ġone": 479,
      "Ġ&": 480,
      "pp": 481,
      "ther": 482,
      "Ġonly": 483,
      "ong": 484,
      "qu": 485,
      "Ġwill": 486,
      "ven": 487,
      "ies": 488,
      "Ġ1": 489,
      "Ġsh": 490,
      "pirit": 491,
      "ĠG": 492,
      "Ġwho": 493,
      "our": 494,
      "Ġso": 495,
      "ire": 496,
      "Ġdo": 497,
      "ature": 498,
      "Ġtheir": 499,
      "ĠW": 500,
      "hy": 501,
      "ress": 502,
      "ome": 503,
      "ans": 504,
      "Ġmind": 505,
      "ĠF": 506,
      "Ġtr": 507,
      "un": 508,
      "ast": 509,
      "ary": 510,
      "op": 511,
      "fect": 512,
      "Ġpro": 513,
      "hen": 514,
      "ivine": 515,
      "ren": 516,
      "âĢĿ": 517,
      "ower": 518,
      "Ġbeing": 519,
      "ond": 520,
      "Ġch": 521,
      "Ġper": 522,
      "ort": 523,
      "Ġout": 524,
      "ish": 525,
      "Ġthey": 526,
      "Ġno": 527,
      "ult": 528,
      "ore": 529,
      "Ġinto": 530,
      "Ġknow": 531,
      "Ġlife": 532,
      "ĠL": 533,
      "el": 534,
      "led": 535,
      "sciousness": 536,
      "Ġus": 537,
      "red": 538,
      "able": 539,
      "ag": 540,
      "ough": 541,
      "Ġother": 542,
      "Ġher": 543,
      "ĠIt": 544,
      "Ġspirit": 545,
      "Ġab": 546,
      "Ġthem": 547,
      "con": 548,
      "Ġbec": 549,
      "to": 550,
      "uth": 551,
      "ial": 552,
      "Ġmore": 553,
      "Ġar": 554,
      "other": 555,
      "Ġwork": 556,
      "ap": 557,
      "ound": 558,
      "one": 559,
      "ie": 560,
      "Ġform": 561,
      "out": 562,
      "ĠâĢľ": 563,
      "Ġup": 564,
      "ĠY": 565,
      "ions": 566,
      "ĠV": 567,
      "ple": 568,
      "de": 569,
      "Ġle": 570,
      "Ġgreat": 571,
      "Ġif": 572,
      "ab": 573,
      "ame": 574,
      "ite": 575,
      "Ġ(": 576,
      "ell": 577,
      "ove": 578,
      "Ġgo": 579,
      "Ġhim": 580,
      "Ġdis": 581,
      "cess": 582,
      "Ġen": 583,
      "oss": 584,
      "ass": 585,
      "ces": 586,
      "ry": 587,
      "ose": 588,
      "Ġself": 589,
      "for": 590,
      "Ġpl": 591,
      "Ġfa": 592,
      "ĠTh": 593,
      "au": 594,
      "wn": 595,
      "be": 596,
      "ward": 597,
      "ledge": 598,
      "Ġthese": 599,
      "ought": 600,
      "Ġmy": 601,
      "Ġsub": 602,
      "ays": 603,
      "Ġworld": 604,
      "Ġ19": 605,
      "ord": 606,
      "Ġj": 607,
      "ake": 608,
      "Ġli": 609,
      "pl": 610,
      "Ġany": 611,
      "not": 612,
      "Ġmust": 613,
      "ree": 614,
      "ke": 615,
      "rit": 616,
      "Ġcont": 617,
      "ations": 618,
      "Ġconsciousness": 619,
      "Ġitself": 620,
      "ality": 621,
      "Ġob": 622,
      "so": 623,
      "Ġpo": 624,
      "ject": 625,
      "iff": 626,
      "Ġmay": 627,
      "Ġpr": 628,
      "ise": 629,
      "hys": 630,
      "Ġwhat": 631,
      "Ġeven": 632,
      "ace": 633,
      "Ġide": 634,
      "Ġthings": 635,
      "ff": 636,
      "Ġact": 637,
      "cept": 638,
      "Ġfir": 639,
      "ach": 640,
      "hi": 641,
      "Ġfe": 642,
      "hysical": 643,
      "Ġwould": 644,
      "we": 645,
      "oul": 646,
      "uman": 647,
      "Ġwhen": 648,
      "ice": 649,
      "ĠIn": 650,
      "Ġbeen": 651,
      "Ġimp": 652,
      "te": 653,
      "are": 654,
      "Ġpart": 655,
      "ign": 656,
      "Ġdes": 657,
      "nder": 658,
      "ital": 659,
      "Ġhig": 660,
      "Ġaction": 661,
      "ime": 662,
      "vel": 663,
      "ition": 664,
      "Ġac": 665,
      "ense": 666,
      "fore": 667,
      "Ġres": 668,
      "tain": 669,
      "ody": 670,
      "Ġown": 671,
      "ep": 672,
      "man": 673,
      "row": 674,
      "hed": 675,
      "ens": 676,
      "age": 677,
      "Äģ": 678,
      "oga": 679,
      "ĠBut": 680,
      "ĠK": 681,
      "Ġsee": 682,
      "ana": 683,
      "ated": 684,
      "hing": 685,
      "Ġind": 686,
      "ber": 687,
      "tern": 688,
      "Ġpower": 689,
      "Ġbr": 690,
      "ex": 691,
      "Ġag": 692,
      "Ġfirst": 693,
      "Ġspiritual": 694,
      "Ġad": 695,
      "Ġreal": 696,
      "Ġdiff": 697,
      "ible": 698,
      "Ġqu": 699,
      "Ġsome": 700,
      "peri": 701,
      "ok": 702,
      "ental": 703,
      "me": 704,
      "Ġnature": 705,
      "ves": 706,
      "Ġpre": 707,
      "ause": 708,
      "ĠInd": 709,
      "olut": 710,
      "Ġposs": 711,
      "Ġyour": 712,
      "act": 713,
      "Ġra": 714,
      "Ġknowledge": 715,
      "ull": 716,
      "istence": 717,
      "ud": 718,
      "Ġver": 719,
      "ne": 720,
      "Ġsoul": 721,
      "pre": 722,
      "Ġhuman": 723,
      "Ġvital": 724,
      "ious": 725,
      "cre": 726,
      "Ġphysical": 727,
      "ĠDivine": 728,
      "Ġthen": 729,
      "ang": 730,
      "Ġmove": 731,
      "Ġev": 732,
      "ath": 733,
      "Ġcl": 734,
      "ĠYoga": 735,
      "urn": 736,
      "ful": 737,
      "oy": 738,
      "aw": 739,
      "hat": 740,
      "Ġthought": 741,
      "Ġthan": 742,
      "AT": 743,
      "Ġwere": 744,
      "Ġmat": 745,
      "rough": 746,
      "su": 747,
      "Ġ|": 748,
      "here": 749,
      "Ġforce": 750,
      "Ġaf": 751,
      "Ġpe": 752,
      "Ġbody": 753,
      "less": 754,
      "arm": 755,
      "Ġdivine": 756,
      "sy": 757,
      "fin": 758,
      "ner": 759,
      "oun": 760,
      "aa": 761,
      "sh": 762,
      "ĠGod": 763,
      "resent": 764,
      "int": 765,
      "wo": 766,
      "ink": 767,
      "Ġlike": 768,
      "ities": 769,
      "Ġnow": 770,
      "Ġrel": 771,
      "very": 772,
      "omet": 773,
      "Ġtruth": 774,
      "Ġstill": 775,
      "ied": 776,
      "Ġalso": 777,
      "ism": 778,
      "uro": 779,
      "ĠFor": 780,
      "ways": 781,
      "ost": 782,
      "Ġperfect": 783,
      "Ġmovement": 784,
      "Ġhad": 785,
      "ia": 786,
      "Ġtru": 787,
      "Ġstr": 788,
      "Ġam": 789,
      "rent": 790,
      "AN": 791,
      "Ġlight": 792,
      "ised": 793,
      "Ġyet": 794,
      "ten": 795,
      "ĠHe": 796,
      "press": 797,
      "ternal": 798,
      "cl": 799,
      "Ġvery": 800,
      "ase": 801,
      "av": 802,
      "ivid": 803,
      "ĠMother": 804,
      "Ġthrough": 805,
      "Ġsense": 806,
      "Ġmental": 807,
      "Ġem": 808,
      "Ġent": 809,
      "Ġtime": 810,
      "ian": 811,
      "Ġatt": 812,
      "com": 813,
      "erson": 814,
      "Ġtrans": 815,
      "And": 816,
      "wh": 817,
      "Ġlong": 818,
      "Ġexperi": 819,
      "ĠJ": 820,
      "bl": 821,
      "ade": 822,
      "ack": 823,
      "ue": 824,
      "ĠThis": 825,
      "old": 826,
      "Ġpass": 827,
      "ory": 828,
      "Ġear": 829,
      "uch": 830,
      "Ġspe": 831,
      "ally": 832,
      "cent": 833,
      "ific": 834,
      "sych": 835,
      "velop": 836,
      "Ġunder": 837,
      "Ġuniv": 838,
      "Ġalways": 839,
      "Ġbecause": 840,
      "ook": 841,
      "over": 842,
      "Ġintell": 843,
      "wards": 844,
      "Ġrem": 845,
      "ĠU": 846,
      "Ġsy": 847,
      "ange": 848,
      "ict": 849,
      "Ġthy": 850,
      "Ġway": 851,
      "Ġdoes": 852,
      "oll": 853,
      "Ġbl": 854,
      "Ġsomet": 855,
      "Ġinst": 856,
      "that": 857,
      "tle": 858,
      "own": 859,
      "form": 860,
      "Ġtrue": 861,
      "par": 862,
      "ative": 863,
      "It": 864,
      "Ġcome": 865,
      "end": 866,
      "Ġexistence": 867,
      "its": 868,
      "ives": 869,
      "Ġover": 870,
      "In": 871,
      "ood": 872,
      "ters": 873,
      "Ġtoo": 874,
      "Ġshe": 875,
      "Ġord": 876,
      "iss": 877,
      "Ġsame": 878,
      "ĠNature": 879,
      "ĠSe": 880,
      "Ġcannot": 881,
      "ished": 882,
      "Ġaw": 883,
      "Ġhere": 884,
      "ertain": 885,
      "ĠAA": 886,
      "Ġ2": 887,
      "ily": 888,
      "Ġwithout": 889,
      "ruth": 890,
      "Ġfl": 891,
      "anda": 892,
      "Ġbet": 893,
      "ason": 894,
      "ifest": 895,
      "Ġfeel": 896,
      "ĠAR": 897,
      "ational": 898,
      "erg": 899,
      "Ġtwo": 900,
      "ĠVed": 901,
      "Ġnew": 902,
      "Ġsp": 903,
      "Ġmost": 904,
      "gg": 905,
      "Ġheart": 906,
      "ya": 907,
      "ĠAn": 908,
      "Ġop": 909,
      "ved": 910,
      "Ġpur": 911,
      "icult": 912,
      "Ġword": 913,
      "Ġagain": 914,
      "ib": 915,
      "Ġfull": 916,
      "Ġgod": 917,
      "Ġpoet": 918,
      "Ġcall": 919,
      "olution": 920,
      "Ġseem": 921,
      "Th": 922,
      "Ġpsych": 923,
      "sel": 924,
      "adh": 925,
      "light": 926,
      "Ġthou": 927,
      "ars": 928,
      "ividual": 929,
      "ffect": 930,
      "erial": 931,
      "Ġapp": 932,
      "go": 933,
      "finite": 934,
      "iving": 935,
      "Ġshould": 936,
      "ision": 937,
      "Ġru": 938,
      "Ġmuch": 939,
      "ile": 940,
      "Ġro": 941,
      "imit": 942,
      "Ġnecess": 943,
      "Ġinner": 944,
      "Ġright": 945,
      "Ġevery": 946,
      "Ġdevelop": 947,
      "Ġsur": 948,
      "idd": 949,
      "Ġend": 950,
      "Ġwhole": 951,
      "ĠThere": 952,
      "Ġimm": 953,
      "mind": 954,
      "Ġget": 955,
      "Ġthink": 956,
      "Ġupon": 957,
      "Ġcomm": 958,
      "akes": 959,
      "Ġmight": 960,
      "Ġsuch": 961,
      "ced": 962,
      "Ġbeg": 963,
      "ither": 964,
      "selves": 965,
      "Ġins": 966,
      "ix": 967,
      "Ġshall": 968,
      "ments": 969,
      "Ġexperience": 970,
      "Ġpra": 971,
      "Ġhigher": 972,
      "Ġpresent": 973,
      "ram": 974,
      "Ġmade": 975,
      "rah": 976,
      "ween": 977,
      "fe": 978,
      "inci": 979,
      "Ġafter": 980,
      "ĠAs": 981,
      "with": 982,
      "Ġ3": 983,
      "ility": 984,
      "ning": 985,
      "ĠAN": 986,
      "ĠIf": 987,
      "Ġcreat": 988,
      "cy": 989,
      "cord": 990,
      "ount": 991,
      "AR": 992,
      "bind": 993,
      "pr": 994,
      "Ġreason": 995,
      "Ġ193": 996,
      "Ġap": 997,
      "Ġkind": 998,
      "Ġidea": 999,
      "Ġdifficult": 1000,
      "isation": 1001,
      "bindo": 1002,
      "ather": 1003,
      "Ġindividual": 1004,
      "ates": 1005,
      "Ġneed": 1006,
      "qual": 1007,
      "âĢĶ": 1008,
      "Ġstrong": 1009,
      "ah": 1010,
      "Ġcond": 1011,
      "ark": 1012,
      "Ġmanifest": 1013,
      "hes": 1014,
      "Ġcould": 1015,
      "urobindo": 1016,
      "preme": 1017,
      "Ġlet": 1018,
      "Ġdist": 1019,
      "oc": 1020,
      "ĠAT": 1021,
      "Ġnor": 1022,
      "which": 1023,
      "Ġperson": 1024,
      "ĠTruth": 1025,
      "Ġconst": 1026,
      "Ġmaterial": 1027,
      "Ġcomple": 1028,
      "Ġcertain": 1029,
      "Ġsa": 1030,
      "Ġhow": 1031,
      "erm": 1032,
      "Ġmeans": 1033,
      "cri": 1034,
      "Ġtowards": 1035,
      "Ġearth": 1036,
      "AA": 1037,
      "umin": 1038,
      "hap": 1039,
      "owers": 1040,
      "Ġsupp": 1041,
      "Ġmany": 1042,
      "Ġfind": 1043,
      "aut": 1044,
      "Ġ[": 1045,
      "ti": 1046,
      "Ġill": 1047,
      "eness": 1048,
      "Ġabout": 1049,
      "Ġmake": 1050,
      "Ġobject": 1051,
      "pra": 1052,
      "Ġlaw": 1053,
      "Ġdone": 1054,
      "gn": 1055,
      "but": 1056,
      "Ġturn": 1057,
      "ident": 1058,
      "ng": 1059,
      "mental": 1060,
      "Ġintellect": 1061,
      "Ġgen": 1062,
      "ient": 1063,
      "Ġdiffe": 1064,
      "Ġthing": 1065,
      "Ġdown": 1066,
      "Ġmean": 1067,
      "Ġmen": 1068,
      "imes": 1069,
      "ĠRe": 1070,
      "Ġart": 1071,
      "aking": 1072,
      "Ġeffect": 1073,
      "Ġwell": 1074,
      "Ġchar": 1075,
      "Ġcons": 1076,
      "Ġexpress": 1077,
      "ady": 1078,
      "Ġsay": 1079,
      "Ġfree": 1080,
      "Ġlove": 1081,
      "Ġresult": 1082,
      "Ġinter": 1083,
      "ĠAurobindo": 1084,
      "ild": 1085,
      "Ġeach": 1086,
      "Ġbetween": 1087,
      "Ġbecom": 1088,
      "AI": 1089,
      "pend": 1090,
      "Ġtake": 1091,
      "Ġbel": 1092,
      "ĠSri": 1093,
      "ersal": 1094,
      "Ġpeop": 1095,
      "gress": 1096,
      "li": 1097,
      "Ġthose": 1098,
      "erv": 1099,
      "Ġwr": 1100,
      "Ġwithin": 1101,
      "Ġpol": 1102,
      "Ġgrow": 1103,
      "action": 1104,
      "Ġold": 1105,
      "inal": 1106,
      "Ġsomething": 1107,
      "acr": 1108,
      "ream": 1109,
      "Ġmet": 1110,
      "Ġrest": 1111,
      "yond": 1112,
      "ted": 1113,
      "rest": 1114,
      "ude": 1115,
      "But": 1116,
      "Ġbefore": 1117,
      "ty": 1118,
      "ĠAI": 1119,
      "ara": 1120,
      "gth": 1121,
      "Ġabs": 1122,
      "Ġopen": 1123,
      "Ġforms": 1124,
      "ks": 1125,
      "Ġlit": 1126,
      "by": 1127,
      "pect": 1128,
      "Ġfound": 1129,
      "Ġprinci": 1130,
      "fl": 1131,
      "na": 1132,
      "pan": 1133,
      "istic": 1134,
      "aken": 1135,
      "ĠWe": 1136,
      "Ġel": 1137,
      "Ġconscious": 1138,
      "atur": 1139,
      "cend": 1140,
      "osm": 1141,
      "Ġpossible": 1142,
      "thing": 1143,
      "ences": 1144,
      "ern": 1145,
      "Ġlimit": 1146,
      "lp": 1147,
      "Ġbecome": 1148,
      "ting": 1149,
      "ollow": 1150,
      "EA": 1151,
      "ubl": 1152,
      "Ġrec": 1153,
      "Ġtherefore": 1154,
      "ĠIndia": 1155,
      "Ġsuff": 1156,
      "aya": 1157,
      "Ġothers": 1158,
      "Ġgreater": 1159,
      "aven": 1160,
      "Ġele": 1161,
      "ever": 1162,
      "und": 1163,
      "ering": 1164,
      "Ġcre": 1165,
      "ands": 1166,
      "rence": 1167,
      "Ġaa": 1168,
      ".âĢĿ": 1169,
      "Ġsat": 1170,
      "cret": 1171,
      "Ġego": 1172,
      "Ġgive": 1173,
      "ave": 1174,
      "hind": 1175,
      "know": 1176,
      "cond": 1177,
      "rad": 1178,
      "Ġjust": 1179,
      "Ġonce": 1180,
      "Ġrep": 1181,
      "Ġsadh": 1182,
      "Ġke": 1183,
      "rength": 1184,
      "oth": 1185,
      "Ġwrit": 1186,
      "Ġhimself": 1187,
      "ages": 1188,
      "orn": 1189,
      "ane": 1190,
      "Ġsuc": 1191,
      "Ġput": 1192,
      "RA": 1193,
      "Ġdet": 1194,
      "Ġgood": 1195,
      "aster": 1196,
      "Ġback": 1197,
      "Ġass": 1198,
      "mn": 1199,
      "ins": 1200,
      "ev": 1201,
      "Ġte": 1202,
      "atter": 1203,
      "Ġph": 1204,
      "otion": 1205,
      "Ġdisc": 1206,
      "ating": 1207,
      "Ġtri": 1208,
      "Ġpure": 1209,
      "Ġpsychic": 1210,
      "Ġvi": 1211,
      "orance": 1212,
      "ivity": 1213,
      "Ġenerg": 1214,
      "Ġdesire": 1215,
      "Ġdire": 1216,
      "Ġuniversal": 1217,
      "ET": 1218,
      "ination": 1219,
      "He": 1220,
      "Ġsubject": 1221,
      "erse": 1222,
      "Ġcle": 1223,
      "ince": 1224,
      "Ġoff": 1225,
      "Ġappe": 1226,
      "Ġuse": 1227,
      "up": 1228,
      "wor": 1229,
      "Ġpeople": 1230,
      "cc": 1231,
      "ip": 1232,
      "Ġnothing": 1233,
      "ually": 1234,
      "Ġgener": 1235,
      "mb": 1236,
      "Ġstate": 1237,
      "ĠZ": 1238,
      "ĠBrah": 1239,
      "Ġfre": 1240,
      "Ġreg": 1241,
      "consci": 1242,
      "hest": 1243,
      "Ġsign": 1244,
      "RI": 1245,
      "Ġless": 1246,
      "Ġfact": 1247,
      "Ġbeyond": 1248,
      "Ġhelp": 1249,
      "Ġcontin": 1250,
      "Ġopp": 1251,
      "Ġbeaut": 1252,
      "ris": 1253,
      "Ġthough": 1254,
      "Ġlast": 1255,
      "cial": 1256,
      "Ġsupreme": 1257,
      "Ġsc": 1258,
      "Ġcomes": 1259,
      "Ġabove": 1260,
      "Ġgl": 1261,
      "ĠOne": 1262,
      "ail": 1263,
      "ception": 1264,
      "ifice": 1265,
      "Ġsl": 1266,
      "Ġwhere": 1267,
      "Ġworks": 1268,
      "Ġthree": 1269,
      "ĠAnd": 1270,
      "Ġlar": 1271,
      "Ġfar": 1272,
      "lish": 1273,
      "ĠIndian": 1274,
      "Ġsm": 1275,
      "Ġlead": 1276,
      "ceed": 1277,
      "Ġinde": 1278,
      "olute": 1279,
      "Ġideal": 1280,
      "Ġ.": 1281,
      "Ġign": 1282,
      "estion": 1283,
      "Ġplace": 1284,
      "Ġfollow": 1285,
      "acter": 1286,
      "ĠLet": 1287,
      "iven": 1288,
      "les": 1289,
      "ures": 1290,
      "Ġsacr": 1291,
      "has": 1292,
      "Ġbring": 1293,
      "isf": 1294,
      "Ġlower": 1295,
      "ĠSu": 1296,
      "Ġess": 1297,
      "irth": 1298,
      "Ġhapp": 1299,
      "ĠSelf": 1300,
      "Ġthee": 1301,
      "Ġpossess": 1302,
      "Ġchange": 1303,
      "Ġeternal": 1304,
      "Ġbehind": 1305,
      "ĠAll": 1306,
      "âĢľ": 1307,
      "Ġmod": 1308,
      "iew": 1309,
      "Ġref": 1310,
      "ĠThat": 1311,
      "There": 1312,
      "gr": 1313,
      "Ġorig": 1314,
      "stand": 1315,
      "ists": 1316,
      "ĠLife": 1317,
      "edi": 1318,
      "Ġocc": 1319,
      "Ġorder": 1320,
      "Ġstrength": 1321,
      "Ġprogress": 1322,
      "ĠForce": 1323,
      "osmic": 1324,
      "Ġinv": 1325,
      "bit": 1326,
      "usion": 1327,
      "Ġ4": 1328,
      "ĠBe": 1329,
      "Ġcent": 1330,
      "Ġentire": 1331,
      "Ġarr": 1332,
      "Ġsw": 1333,
      "Ġjoy": 1334,
      "king": 1335,
      "Ġey": 1336,
      "most": 1337,
      "EN": 1338,
      "irc": 1339,
      "ss": 1340,
      "Ġnatur": 1341,
      "empt": 1342,
      "Ġnecessary": 1343,
      "This": 1344,
      "Ġobs": 1345,
      "Ġmere": 1346,
      "cient": 1347,
      "Ġgods": 1348,
      "iet": 1349,
      "inary": 1350,
      "Ġrelig": 1351,
      "Ġgr": 1352,
      "mit": 1353,
      "Ġaccept": 1354,
      "To": 1355,
      "ving": 1356,
      "stem": 1357,
      "gan": 1358,
      "olog": 1359,
      "Ġvision": 1360,
      "pa": 1361,
      "Ġsuper": 1362,
      "ances": 1363,
      "Ġsepar": 1364,
      "ug": 1365,
      "ors": 1366,
      "Ġdifferent": 1367,
      "eng": 1368,
      "ts": 1369,
      "Ġsim": 1370,
      "ĠCon": 1371,
      "Ġforces": 1372,
      "itions": 1373,
      "Ġpowers": 1374,
      "Ġsens": 1375,
      "Ġinstru": 1376,
      "Ġelse": 1377,
      "ines": 1378,
      "AS": 1379,
      "itude": 1380,
      "Ġanother": 1381,
      "ying": 1382,
      "ential": 1383,
      "Ġconf": 1384,
      "ular": 1385,
      "Ġpolit": 1386,
      "Ġdelight": 1387,
      "Ġagainst": 1388,
      "Ġseems": 1389,
      "perfect": 1390,
      "ield": 1391,
      "from": 1392,
      "Ġhigh": 1393,
      "Ġcomplete": 1394,
      "ined": 1395,
      "ĠCh": 1396,
      "Ġcor": 1397,
      "ortal": 1398,
      "Ġcharacter": 1399,
      "Ġbas": 1400,
      "Ġeither": 1401,
      "For": 1402,
      "Ġvar": 1403,
      "cript": 1404,
      "Ġret": 1405,
      "ĠEng": 1406,
      "Ġremain": 1407,
      "iz": 1408,
      "oub": 1409,
      "ived": 1410,
      "armon": 1411,
      "Ġprinciple": 1412,
      "Ġincre": 1413,
      "stance": 1414,
      "Ġstru": 1415,
      "ishad": 1416,
      "Ġsecret": 1417,
      "Ġpubl": 1418,
      "ency": 1419,
      "af": 1420,
      "Ġpract": 1421,
      "Ġthemselves": 1422,
      "ĠSh": 1423,
      "err": 1424,
      "ether": 1425,
      "Ġclear": 1426,
      "ents": 1427,
      "Ġdem": 1428,
      "Ġbegin": 1429,
      "TA": 1430,
      "icient": 1431,
      "Ġsupra": 1432,
      "Ġtou": 1433,
      "itive": 1434,
      "ita": 1435,
      "Ġinfinite": 1436,
      "Ġinte": 1437,
      "Ġgu": 1438,
      "pos": 1439,
      "Ġevolution": 1440,
      "Ġmatter": 1441,
      "Ġhighest": 1442,
      "urope": 1443,
      "arch": 1444,
      "Ġbecomes": 1445,
      "Ġhold": 1446,
      "osop": 1447,
      "panishad": 1448,
      "Ġye": 1449,
      "piration": 1450,
      "ulf": 1451,
      "Ġheaven": 1452,
      "Ġsuccess": 1453,
      "Ġut": 1454,
      "ĠSpirit": 1455,
      "Ġlook": 1456,
      "Ġset": 1457,
      "Ġoften": 1458,
      "ma": 1459,
      "hether": 1460,
      "joy": 1461,
      "Ġext": 1462,
      "ified": 1463,
      "Ġliber": 1464,
      "Ġcap": 1465,
      "ĠOn": 1466,
      "ert": 1467,
      "estab": 1468,
      "Ġpoint": 1469,
      "ĠLetters": 1470,
      "Ġrev": 1471,
      "ĠHis": 1472,
      "Ġpeace": 1473,
      "Ġstand": 1474,
      "uc": 1475,
      "conscient": 1476,
      "Ġpast": 1477,
      "Ġeas": 1478,
      "Ġenergy": 1479,
      "Ġtend": 1480,
      "omen": 1481,
      "uture": 1482,
      "Ġboth": 1483,
      "ote": 1484,
      "ger": 1485,
      "Ġsystem": 1486,
      "ising": 1487,
      "Ġsil": 1488,
      "Ġprocess": 1489,
      "Ġsacrifice": 1490,
      "consciousness": 1491,
      "19": 1492,
      "atic": 1493,
      "head": 1494,
      "ĠUpanishad": 1495,
      "Ġintellectual": 1496,
      "ered": 1497,
      "Ġsaid": 1498,
      "Ġgeneral": 1499,
      "Ġaway": 1500,
      "ON": 1501,
      "Ġplay": 1502,
      "ention": 1503,
      "ilosop": 1504,
      "Ġlittle": 1505,
      "âĢĿ,": 1506,
      "ĠPur": 1507,
      "Ġquite": 1508,
      "Ġdid": 1509,
      "Ġdirect": 1510,
      "iness": 1511,
      "Ġnever": 1512,
      "Ġgiven": 1513,
      "akti": 1514,
      "IN": 1515,
      "Ġpoetry": 1516,
      "pro": 1517,
      "Ġdiv": 1518,
      "Ġuniverse": 1519,
      "Ġintu": 1520,
      "Ġsecond": 1521,
      "Ġval": 1522,
      "Ġsugg": 1523,
      "istent": 1524,
      "Ġcount": 1525,
      "ĠBrahman": 1526,
      "Ġrather": 1527,
      "tc": 1528,
      "ready": 1529,
      "Ġcar": 1530,
      "ft": 1531,
      "Ġconstant": 1532,
      "Ġnatural": 1533,
      "Ġpres": 1534,
      "iddhi": 1535,
      "ymn": 1536,
      "apas": 1537,
      "ĠEurope": 1538,
      "ixed": 1539,
      "hod": 1540,
      "ĠVeda": 1541,
      "there": 1542,
      "this": 1543,
      "edom": 1544,
      "As": 1545,
      "rans": 1546,
      "Ġliving": 1547,
      "asure": 1548,
      "ĠSt": 1549,
      "ird": 1550,
      "udd": 1551,
      "engal": 1552,
      "Ġtra": 1553,
      "ef": 1554,
      "Ġever": 1555,
      "Ġadv": 1556,
      "Ġbeauty": 1557,
      "Ġtem": 1558,
      "Ġ191": 1559,
      "ons": 1560,
      "Ġes": 1561,
      "ob": 1562,
      "po": 1563,
      "Ġhand": 1564,
      "Ġmor": 1565,
      "itut": 1566,
      "Ġideas": 1567,
      "Ġleast": 1568,
      "alm": 1569,
      "mbol": 1570,
      "ph": 1571,
      "Ġ5": 1572,
      "his": 1573,
      "ope": 1574,
      "Ġview": 1575,
      "can": 1576,
      "Ġed": 1577,
      "Ġwant": 1578,
      "Ġdream": 1579,
      "Ġcosmic": 1580,
      "Ġlive": 1581,
      "Ġunity": 1582,
      "Ġmovements": 1583,
      "Ġbre": 1584,
      "Ġmom": 1585,
      "ration": 1586,
      "Ġsatisf": 1587,
      "ĠLight": 1588,
      "Ġfin": 1589,
      "Ġser": 1590,
      "Ġseen": 1591,
      "ater": 1592,
      "Ġequal": 1593,
      "Ġfulf": 1594,
      "ont": 1595,
      "arma": 1596,
      "krit": 1597,
      "will": 1598,
      "Ġvo": 1599,
      "Ġty": 1600,
      "Ġetc": 1601,
      "angu": 1602,
      "ech": 1603,
      "Ġorgan": 1604,
      "tic": 1605,
      "Ġwords": 1606,
      "Ġestab": 1607,
      "odu": 1608,
      "ank": 1609,
      "ĠMind": 1610,
      "ati": 1611,
      "Ġdeath": 1612,
      "Ġattempt": 1613,
      "nam": 1614,
      "Ġeff": 1615,
      "ately": 1616,
      "ows": 1617,
      "Ġperfection": 1618,
      "flu": 1619,
      "Ġsometimes": 1620,
      "Ġkeep": 1621,
      "Ġoppos": 1622,
      "ier": 1623,
      "have": 1624,
      "Ġharmon": 1625,
      "âĢĿ.": 1626,
      "va": 1627,
      "risht": 1628,
      "Ġswe": 1629,
      "Ġwhile": 1630,
      "Ġcontinu": 1631,
      "Ġworking": 1632,
      "Ġpossib": 1633,
      "Ġpain": 1634,
      "Ġday": 1635,
      "ta": 1636,
      "Ġwhether": 1637,
      "II": 1638,
      "pose": 1639,
      "alse": 1640,
      "uminous": 1641,
      "Ġfaith": 1642,
      "als": 1643,
      "arn": 1644,
      "Ġcour": 1645,
      "stru": 1646,
      "ĠUn": 1647,
      "ises": 1648,
      "atever": 1649,
      "Ġdra": 1650,
      "Ġcondition": 1651,
      "ĠPR": 1652,
      "where": 1653,
      "Ġunderstand": 1654,
      "ĠTo": 1655,
      "Ġlonger": 1656,
      "Ġabsolute": 1657,
      "Ġstrugg": 1658,
      "Ġfel": 1659,
      "ĠBengal": 1660,
      "ĠAnanda": 1661,
      "pire": 1662,
      "Ġcame": 1663,
      "ider": 1664,
      "Ġfail": 1665,
      "Ġordinary": 1666,
      "Ġpersonal": 1667,
      "Ġsince": 1668,
      "ash": 1669,
      "hip": 1670,
      "alf": 1671,
      "Ġrule": 1672,
      "dom": 1673,
      "come": 1674,
      "rish": 1675,
      "gni": 1676,
      "Ġimag": 1677,
      "ÅĽ": 1678,
      "Ġnation": 1679,
      "Ġdev": 1680,
      "day": 1681,
      "ĠEnglish": 1682,
      "ably": 1683,
      "Ġfall": 1684,
      "Ġ190": 1685,
      "Ġquestion": 1686,
      "Ġdark": 1687,
      "part": 1688,
      "Ġexcept": 1689,
      "Ġsupport": 1690,
      "Ġdest": 1691,
      "Ġmethod": 1692,
      "Ġve": 1693,
      "aks": 1694,
      "Ġfuture": 1695,
      "jn": 1696,
      "ĠWhen": 1697,
      "Ġreturn": 1698,
      "Ġcirc": 1699,
      "ÃĪ": 1700,
      "Ġsadhana": 1701,
      "pond": 1702,
      "Ġfreedom": 1703,
      "Ġacc": 1704,
      "Ġwhom": 1705,
      "Ġbirth": 1706,
      "Ġactivity": 1707,
      "An": 1708,
      "ĠX": 1709,
      "ift": 1710,
      "nment": 1711,
      "ĠAE": 1712,
      "Ġprev": 1713,
      "Ġrece": 1714,
      "Ġsupramental": 1715,
      "ĠWhat": 1716,
      "Ġsymbol": 1717,
      "ining": 1718,
      "Ġmain": 1719,
      "cording": 1720,
      "Ġentirely": 1721,
      "bed": 1722,
      "ics": 1723,
      "Ġsing": 1724,
      "ĠAt": 1725,
      "being": 1726,
      "Ġdevelopment": 1727,
      "any": 1728,
      "ification": 1729,
      "tend": 1730,
      "leep": 1731,
      "rishti": 1732,
      "irm": 1733,
      "Ġindeed": 1734,
      "All": 1735,
      "Ġaim": 1736,
      "Ġinc": 1737,
      "Ġple": 1738,
      "ically": 1739,
      "Ġenjoy": 1740,
      "Ġactive": 1741,
      "ases": 1742,
      "rol": 1743,
      "Ġtransform": 1744,
      "Ġpath": 1745,
      "ama": 1746,
      "Ġmoment": 1747,
      "Ġalone": 1748,
      "well": 1749,
      "Ġgra": 1750,
      "sion": 1751,
      "Ġmaster": 1752,
      "cure": 1753,
      "Ġtaken": 1754,
      "Ġbest": 1755,
      "Ġcommon": 1756,
      "ĠPo": 1757,
      "Ġpos": 1758,
      "Ġalready": 1759,
      "ĠDe": 1760,
      "ĠHim": 1761,
      "igence": 1762,
      "une": 1763,
      "Ġimport": 1764,
      "ened": 1765,
      "),": 1766,
      "Ġpress": 1767,
      "cted": 1768,
      "Ġhowever": 1769,
      "ieve": 1770,
      "ires": 1771,
      "Ġreality": 1772,
      "ER": 1773,
      "Ġcountry": 1774,
      "Ġused": 1775,
      "Ġdr": 1776,
      "Ġdec": 1777,
      "What": 1778,
      "Ġessential": 1779,
      "Ġterm": 1780,
      "Ġable": 1781,
      "Ġco": 1782,
      "ĠPower": 1783,
      "Ġphilosop": 1784,
      "Ġpolitical": 1785,
      "Ġdoub": 1786,
      "henomen": 1787,
      "ĠVedic": 1788,
      "Ġlangu": 1789,
      "Ġpers": 1790,
      "ĠFire": 1791,
      "ĠAS": 1792,
      "Ġcreation": 1793,
      "Ġbasis": 1794,
      "Ġread": 1795,
      "Ġparts": 1796,
      "Ġside": 1797,
      "Ġappear": 1798,
      "aug": 1799,
      "Ġexternal": 1800,
      "haps": 1801,
      "Ġregard": 1802,
      "Ġtakes": 1803,
      "Ġcalled": 1804,
      "Ġchild": 1805,
      "ĠThey": 1806,
      "ĠPra": 1807,
      "Ġlarge": 1808,
      "Ġlimited": 1809,
      "ĠPA": 1810,
      "side": 1811,
      "ctions": 1812,
      "On": 1813,
      "knowledge": 1814,
      "imate": 1815,
      "cience": 1816,
      "ection": 1817,
      "Ġunt": 1818,
      "Ġluminous": 1819,
      "Ġtouch": 1820,
      "face": 1821,
      "ĠMatter": 1822,
      "Ġfield": 1823,
      "Ġcalm": 1824,
      "ĠAgni": 1825,
      "Ġstep": 1826,
      "Ġdeep": 1827,
      "body": 1828,
      "ged": 1829,
      "atar": 1830,
      "ief": 1831,
      ").": 1832,
      "ata": 1833,
      "Ġfore": 1834,
      "ys": 1835,
      "ĠWill": 1836,
      "Ġfeeling": 1837,
      "Ġfalse": 1838,
      "ick": 1839,
      "adhi": 1840,
      "oura": 1841,
      "Ġbliss": 1842,
      "Ġeyes": 1843,
      "Ġcult": 1844,
      "Ġoutward": 1845,
      "Ġfew": 1846,
      "IA": 1847,
      "alth": 1848,
      "Ġgover": 1849,
      "ĠGita": 1850,
      "Ã¡": 1851,
      "Ġbound": 1852,
      "Ġdepend": 1853,
      "Ġsweet": 1854,
      "If": 1855,
      "Ġmeaning": 1856,
      "arily": 1857,
      "Ġsun": 1858,
      "Ġexist": 1859,
      "Ä«": 1860,
      "ĠLord": 1861,
      "ogn": 1862,
      "ec": 1863,
      "eb": 1864,
      "ĠAP": 1865,
      "ĠIA": 1866,
      "Ġimpul": 1867,
      "was": 1868,
      "ides": 1869,
      "Ġhead": 1870,
      "ĠMA": 1871,
      "appe": 1872,
      "aj": 1873,
      "bs": 1874,
      "That": 1875,
      "Ġwide": 1876,
      "Ġhalf": 1877,
      "Ġquiet": 1878,
      "Ġ6": 1879,
      "Ġborn": 1880,
      "ĠTime": 1881,
      "Ġvast": 1882,
      "pat": 1883,
      "Ġerr": 1884,
      "Ġgives": 1885,
      "uring": 1886,
      "Ġhabit": 1887,
      "Ġreally": 1888,
      "ms": 1889,
      "Ġcourse": 1890,
      "sw": 1891,
      "Ġsound": 1892,
      "Ġmyst": 1893,
      "ety": 1894,
      "ember": 1895,
      "Ġsubstance": 1896,
      "ouse": 1897,
      "Ġillumin": 1898,
      "pid": 1899,
      "Ġga": 1900,
      "Ġoriginal": 1901,
      "We": 1902,
      "Ġdifficulty": 1903,
      "full": 1904,
      "hood": 1905,
      "mal": 1906,
      "amadhi": 1907,
      "only": 1908,
      "ĠPurus": 1909,
      "Ġancient": 1910,
      "ĠÃ": 1911,
      "Ġmeet": 1912,
      "Ġmanifestation": 1913,
      "omin": 1914,
      "Ġfig": 1915,
      "Ġmakes": 1916,
      "inct": 1917,
      "spirit": 1918,
      "NA": 1919,
      "Ġwar": 1920,
      "Ġseek": 1921,
      "ĠNA": 1922,
      "fer": 1923,
      "Ġwhy": 1924,
      "Ġplan": 1925,
      "ĠAr": 1926,
      "Ġimperfect": 1927,
      "Ġwritten": 1928,
      "mber": 1929,
      "ananda": 1930,
      "Ġlo": 1931,
      "Ġdeterm": 1932,
      "Ġsufficient": 1933,
      "Ġsuggest": 1934,
      "Ġcase": 1935,
      "Ġphenomen": 1936,
      "riend": 1937,
      "asa": 1938,
      "nowledge": 1939,
      "Ġreject": 1940,
      "Ġinflu": 1941,
      "Ġouter": 1942,
      "Ġsmall": 1943,
      "Ġstruggle": 1944,
      "gu": 1945,
      "Ind": 1946,
      "ead": 1947,
      "ossible": 1948,
      "Ġsubtle": 1949,
      "Ġexpression": 1950,
      "Ġmis": 1951,
      "aim": 1952,
      "arent": 1953,
      "Ġtre": 1954,
      "Ġbeginning": 1955,
      "Ġwhose": 1956,
      "ours": 1957,
      "tion": 1958,
      "Ġplane": 1959,
      "ples": 1960,
      "Ġmerely": 1961,
      "illed": 1962,
      "under": 1963,
      "ery": 1964,
      "IT": 1965,
      "lished": 1966,
      "dis": 1967,
      "Ġline": 1968,
      "Ġignorance": 1969,
      "Ġce": 1970,
      "Ġaware": 1971,
      "Ġsignific": 1972,
      "Ġrealisation": 1973,
      "Ġdel": 1974,
      "den": 1975,
      "ling": 1976,
      "Ġbu": 1977,
      "Ġanim": 1978,
      "Ġworlds": 1979,
      "Ġ7": 1980,
      "Ġlanguage": 1981,
      "ale": 1982,
      "Ġq": 1983,
      "Ġhumanity": 1984,
      "Ġspeech": 1985,
      "Ġanything": 1986,
      "wise": 1987,
      "into": 1988,
      "cially": 1989,
      "Ġname": 1990,
      "Ġrepresent": 1991,
      "Ġfour": 1992,
      "cont": 1993,
      "ĠSA": 1994,
      "ked": 1995,
      "Ġcru": 1996,
      "ĠThese": 1997,
      "ĠSo": 1998,
      "Ġconce": 1999,
      "Ġeffort": 2000,
      "ided": 2001,
      "etry": 2002,
      "conscious": 2003,
      "overnment": 2004,
      "ald": 2005,
      "10": 2006,
      "Ġdoubt": 2007,
      "por": 2008,
      "force": 2009,
      "Ġviol": 2010,
      "used": 2011,
      "ĠWor": 2012,
      "ĠBeing": 2013,
      "Ġface": 2014,
      "Ġwhatever": 2015,
      "them": 2016,
      "pression": 2017,
      "Ġfelt": 2018,
      "ently": 2019,
      "Ġinstrument": 2020,
      "gnorance": 2021,
      "Ġseparate": 2022,
      "Ġda": 2023,
      "Ġfirm": 2024,
      "kriti": 2025,
      "ĠaA": 2026,
      "ĠRA": 2027,
      "Ġinterest": 2028,
      "ĠOr": 2029,
      "ication": 2030,
      "Ġlab": 2031,
      "Ġsure": 2032,
      "though": 2033,
      "Ġsent": 2034,
      "Ġleft": 2035,
      "Ġnational": 2036,
      "physical": 2037,
      "Ġfixed": 2038,
      "ĠSw": 2039,
      "oud": 2040,
      "Ġident": 2041,
      "RE": 2042,
      "Ġpurpose": 2043,
      "Ġeffective": 2044,
      "ross": 2045,
      "Ġbetter": 2046,
      "Ġconcent": 2047,
      "Ġfr": 2048,
      "Ġexpl": 2049,
      "Ġspeak": 2050,
      "Ġnight": 2051,
      "Ġalmost": 2052,
      "ĠAsh": 2053,
      "ĠIs": 2054,
      "Ġemb": 2055,
      "Ġsurface": 2056,
      "ene": 2057,
      "Ġaccording": 2058,
      "Ġbrought": 2059,
      "Ġresist": 2060,
      "Ġsocial": 2061,
      "Ġrapid": 2062,
      "Ġwa": 2063,
      "Ġcur": 2064,
      "hyth": 2065,
      "itation": 2066,
      "who": 2067,
      "Ġenough": 2068,
      "Ġmass": 2069,
      "Ġallow": 2070,
      "Ġcontrol": 2071,
      "power": 2072,
      "rishna": 2073,
      "rief": 2074,
      "Ġrelation": 2075,
      "ological": 2076,
      "Ġmon": 2077,
      "no": 2078,
      "Ġqual": 2079,
      "olved": 2080,
      "Ġden": 2081,
      "una": 2082,
      "ability": 2083,
      "Ġca": 2084,
      "Ġprof": 2085,
      "gether": 2086,
      "Ġsleep": 2087,
      "Ġincreas": 2088,
      "Ġaff": 2089,
      "ĠIndra": 2090,
      "do": 2091,
      "ĠaT": 2092,
      "ĠNational": 2093,
      "life": 2094,
      "app": 2095,
      "they": 2096,
      "Of": 2097,
      "Ġnum": 2098,
      "Ġcommun": 2099,
      "iant": 2100,
      "jnana": 2101,
      "Ġlog": 2102,
      "Ġchang": 2103,
      "Ġimmedi": 2104,
      "Ġfulfil": 2105,
      "Ġcircum": 2106,
      "use": 2107,
      "Ġconditions": 2108,
      "Ġbeings": 2109,
      "imp": 2110,
      "NI": 2111,
      "ymns": 2112,
      "ems": 2113,
      "Ġelement": 2114,
      "Ġmin": 2115,
      "ĠMah": 2116,
      "Ġwat": 2117,
      "ained": 2118,
      "Ġletter": 2119,
      "real": 2120,
      "Ġmodern": 2121,
      "Ġlines": 2122,
      "Ġmighty": 2123,
      "Ġaaa": 2124,
      "Wh": 2125,
      "their": 2126,
      "sub": 2127,
      "Ġtransl": 2128,
      "mm": 2129,
      "ains": 2130,
      "Ġtogether": 2131,
      "ured": 2132,
      "Ġthoughts": 2133,
      "ynam": 2134,
      "ĠTA": 2135,
      "ited": 2136,
      "Ġrace": 2137,
      "irst": 2138,
      "Ġourselves": 2139,
      "ala": 2140,
      "ext": 2141,
      "ivities": 2142,
      "Ġstra": 2143,
      "Ġconqu": 2144,
      "pecially": 2145,
      "acity": 2146,
      "Ġintelligence": 2147,
      "Ġreligion": 2148,
      "Ġemotion": 2149,
      "Ġlives": 2150,
      "Ġund": 2151,
      "Ġcare": 2152,
      "chan": 2153,
      "Ġvis": 2154,
      "rary": 2155,
      "ouble": 2156,
      "Ġsingle": 2157,
      "ute": 2158,
      "Ġfo": 2159,
      "min": 2160,
      "Ġpartic": 2161,
      "ĠIgnorance": 2162,
      "Ġhope": 2163,
      "iod": 2164,
      "Ġhard": 2165,
      "Ġpassion": 2166,
      "ĠYou": 2167,
      "ĠPurusha": 2168,
      "Ġattain": 2169,
      "ĠYog": 2170,
      "cul": 2171,
      "ĠKnowledge": 2172,
      "Ġstart": 2173,
      "ciety": 2174,
      "respond": 2175,
      "ned": 2176,
      "Ġcontact": 2177,
      "You": 2178,
      "Ġ..": 2179,
      "pass": 2180,
      "Ġbro": 2181,
      "ĠEx": 2182,
      "Ġadd": 2183,
      "icity": 2184,
      "hapter": 2185,
      "br": 2186,
      "Ġevil": 2187,
      "Ġappro": 2188,
      "Ġcol": 2189,
      "eth": 2190,
      "Ġperhaps": 2191,
      "ĠAry": 2192,
      "Ġaspect": 2193,
      "ĠAshram": 2194,
      "him": 2195,
      "Ġintens": 2196,
      "ries": 2197,
      "har": 2198,
      "ority": 2199,
      "Ġthrow": 2200,
      "amental": 2201,
      "ĠEd": 2202,
      "Ġmed": 2203,
      "sequ": 2204,
      "Ġsha": 2205,
      "Ġproceed": 2206,
      "hythm": 2207,
      "att": 2208,
      "ĠMr": 2209,
      "ĠOther": 2210,
      "Ġweak": 2211,
      "ĠRecord": 2212,
      "ĠNE": 2213,
      "Ġexperiences": 2214,
      "ared": 2215,
      "cur": 2216,
      "Ġproper": 2217,
      "rel": 2218,
      "Ġdeal": 2219,
      "Ġcreated": 2220,
      "idden": 2221,
      "Ġveil": 2222,
      "aught": 2223,
      "Ġir": 2224,
      "Ġwrong": 2225,
      "kald": 2226,
      "fully": 2227,
      "existence": 2228,
      "Ġpublished": 2229,
      "ached": 2230,
      "Ġperiod": 2231,
      "Ġsk": 2232,
      "Ġfriend": 2233,
      "aled": 2234,
      "ĠCom": 2235,
      "asion": 2236,
      "Ġforward": 2237,
      "Ġfire": 2238,
      "ivil": 2239,
      "ĠPr": 2240,
      "imin": 2241,
      "Ġoutside": 2242,
      "Ġlevel": 2243,
      "rem": 2244,
      "Ġcause": 2245,
      "Ġment": 2246,
      "Ġtapas": 2247,
      "Ġreve": 2248,
      "Ġharmony": 2249,
      "ciation": 2250,
      "ĠMan": 2251,
      "Ġnecessity": 2252,
      "ĠConsciousness": 2253,
      "uk": 2254,
      "Ġpossession": 2255,
      "Ġcomb": 2256,
      "ott": 2257,
      "Ġpar": 2258,
      "Ġuntil": 2259,
      "itable": 2260,
      "asy": 2261,
      "Ġ192": 2262,
      "fa": 2263,
      "gral": 2264,
      "Ġrid": 2265,
      "see": 2266,
      "pens": 2267,
      "ues": 2268,
      "Ġmortal": 2269,
      "Ġsilence": 2270,
      "str": 2271,
      "ĠNot": 2272,
      "Ġusually": 2273,
      "kaldrishti": 2274,
      "ify": 2275,
      "you": 2276,
      "Ġbook": 2277,
      "Ġansw": 2278,
      "Ġestablished": 2279,
      "Ġtill": 2280,
      "Ġserv": 2281,
      "iously": 2282,
      "Ġmentality": 2283,
      "ference": 2284,
      "Ġpersonality": 2285,
      "Ġconn": 2286,
      "Ġattack": 2287,
      "anger": 2288,
      "When": 2289,
      "ening": 2290,
      "like": 2291,
      "miss": 2292,
      "lled": 2293,
      "Ġthinking": 2294,
      "nature": 2295,
      "Ġlip": 2296,
      "Ġsees": 2297,
      "Äģn": 2298,
      "Ġapparent": 2299,
      "Ġroot": 2300,
      "elf": 2301,
      "urb": 2302,
      "ersonal": 2303,
      "pret": 2304,
      "Ġcast": 2305,
      "arth": 2306,
      "new": 2307,
      "Ġtranscend": 2308,
      "Ġgrowth": 2309,
      "Ġhouse": 2310,
      "ume": 2311,
      "osed": 2312,
      "undamental": 2313,
      "ral": 2314,
      "ĠAAT": 2315,
      "Ġresults": 2316,
      "Ġtendency": 2317,
      "Ġrepl": 2318,
      "Ġbecoming": 2319,
      "Ġrecogn": 2320,
      "world": 2321,
      "Ġsour": 2322,
      "Ġdynam": 2323,
      "Ġfac": 2324,
      "iful": 2325,
      "Ġopening": 2326,
      "ĠPrakriti": 2327,
      "ilt": 2328,
      "cies": 2329,
      "render": 2330,
      "idence": 2331,
      "Ġactual": 2332,
      "Ġcoll": 2333,
      "ĠInfinite": 2334,
      "more": 2335,
      "Ġthird": 2336,
      "Ġconsider": 2337,
      "ea": 2338,
      "Ġamong": 2339,
      "uous": 2340,
      "ĠEven": 2341,
      "ĠHind": 2342,
      "cise": 2343,
      "Ġvoice": 2344,
      "Ġlim": 2345,
      "Ġgold": 2346,
      "Ġmoral": 2347,
      "St": 2348,
      "ande": 2349,
      "cing": 2350,
      "Ġmot": 2351,
      "Ġlater": 2352,
      "ship": 2353,
      "Ġprov": 2354,
      "Ġknows": 2355,
      "Ġimage": 2356,
      "clud": 2357,
      "orrow": 2358,
      "Ġinev": 2359,
      "cho": 2360,
      "land": 2361,
      "Ġmar": 2362,
      "ĠII": 2363,
      "Ġhands": 2364,
      "Ġfam": 2365,
      "EI": 2366,
      "Ġstage": 2367,
      "Ġbrings": 2368,
      "Ġdeveloped": 2369,
      "attle": 2370,
      "Ġsiddhi": 2371,
      "Ġking": 2372,
      "Ġdescent": 2373,
      "ric": 2374,
      "Ġlost": 2375,
      "Ġvict": 2376,
      "get": 2377,
      "Ġeasily": 2378,
      "Ġseiz": 2379,
      "Ġmechan": 2380,
      "Ġliter": 2381,
      "Ġrhythm": 2382,
      "Ġerror": 2383,
      "ĠEuropean": 2384,
      "aring": 2385,
      "Ġobst": 2386,
      "Ġdifficulties": 2387,
      "Ġdarkness": 2388,
      "ilities": 2389,
      "Ġorigin": 2390,
      "des": 2391,
      "move": 2392,
      "Ġyears": 2393,
      "Ġjud": 2394,
      "Ġreligious": 2395,
      "ck": 2396,
      "Ġgoes": 2397,
      "Ġactivities": 2398,
      "Ġclass": 2399,
      "Ġperfectly": 2400,
      "ior": 2401,
      "Ġdefect": 2402,
      "My": 2403,
      "Ġ8": 2404,
      "Ġdemand": 2405,
      "Ġ9": 2406,
      "icial": 2407,
      "great": 2408,
      "hold": 2409,
      "kind": 2410,
      "amas": 2411,
      "aid": 2412,
      "even": 2413,
      "Ġach": 2414,
      "asp": 2415,
      "Ġaccom": 2416,
      "Ġnear": 2417,
      "Ġclose": 2418,
      "Ġrise": 2419,
      "ĠPoetry": 2420,
      "Ġpressure": 2421,
      "orant": 2422,
      "Ġdisci": 2423,
      "ĠVedant": 2424,
      "Ġanimal": 2425,
      "Ġfra": 2426,
      "ĠMay": 2427,
      "Ġindic": 2428,
      "Ġaspiration": 2429,
      "Ġperception": 2430,
      "RO": 2431,
      "Ġmeant": 2432,
      "Ġsole": 2433,
      "Ġav": 2434,
      "race": 2435,
      "ĠMatar": 2436,
      "Ġprot": 2437,
      "Ġresp": 2438,
      "Ġbelong": 2439,
      "ES": 2440,
      "Ġsol": 2441,
      "ards": 2442,
      "Ġeverything": 2443,
      "stances": 2444,
      "Ġdescend": 2445,
      "Ġimpossible": 2446,
      "Ġyourself": 2447,
      "Ġplanes": 2448,
      "His": 2449,
      "Ġcoming": 2450,
      "ali": 2451,
      "Ġsenses": 2452,
      "ongress": 2453,
      "Ġadmit": 2454,
      "Ġfinal": 2455,
      "Ġdwell": 2456,
      "comple": 2457,
      "Ġcorrespond": 2458,
      "Ġgre": 2459,
      "jas": 2460,
      "Be": 2461,
      "TI": 2462,
      "Ġmult": 2463,
      "ades": 2464,
      "iction": 2465,
      "Ġtype": 2466,
      "iver": 2467,
      "Ġpresence": 2468,
      "ply": 2469,
      "ortality": 2470,
      "Ġvalue": 2471,
      "when": 2472,
      "Ġsociety": 2473,
      "spiritual": 2474,
      "Ġtimes": 2475,
      "long": 2476,
      "aching": 2477,
      "ari": 2478,
      "Ġsort": 2479,
      "ĠBrit": 2480,
      "ches": 2481,
      "ading": 2482,
      "Ġdisappe": 2483,
      "Ġreaction": 2484,
      "Ġbright": 2485,
      "Ġsaw": 2486,
      "Or": 2487,
      "Ġmyself": 2488,
      "Ġdays": 2489,
      "experi": 2490,
      "Ġappl": 2491,
      "Ġage": 2492,
      "Ġbh": 2493,
      "Ġdifference": 2494,
      "Ġutter": 2495,
      "omed": 2496,
      "eper": 2497,
      "Ġready": 2498,
      "ĠTrans": 2499,
      "ĠPro": 2500,
      "ĠPart": 2501,
      "Ġvir": 2502,
      "Ġlearn": 2503,
      "rect": 2504,
      "12": 2505,
      "TH": 2506,
      "iar": 2507,
      "roy": 2508,
      "Ġcentre": 2509,
      "Ġeye": 2510,
      "Ġsin": 2511,
      "Ġfundamental": 2512,
      "Ġimper": 2513,
      "ĠGovernment": 2514,
      "Ġacts": 2515,
      "ants": 2516,
      "Ġalt": 2517,
      "Ġshow": 2518,
      "Ġwrote": 2519,
      "Ġsays": 2520,
      "Ġcho": 2521,
      "Ġfun": 2522,
      "Ġones": 2523,
      "overed": 2524,
      "Ġinfluence": 2525,
      "Ġslow": 2526,
      "Ġletters": 2527,
      "Ġpossibility": 2528,
      "Ġhist": 2529,
      "Ġprom": 2530,
      "..": 2531,
      "ĠMataram": 2532,
      "Ġaround": 2533,
      "Ġauth": 2534,
      "Ġwrite": 2535,
      "Ġdoing": 2536,
      "Ġterms": 2537,
      "ths": 2538,
      "Ġespecially": 2539,
      "ched": 2540,
      "iment": 2541,
      "Ġseeking": 2542,
      "Ġevident": 2543,
      "ca": 2544,
      "Ġmist": 2545,
      "Ġenter": 2546,
      "Ġson": 2547,
      "Ġrevel": 2548,
      "ology": 2549,
      "Ġtw": 2550,
      "Ġtot": 2551,
      "point": 2552,
      "Ġcrit": 2553,
      "ĠEternal": 2554,
      "reg": 2555,
      "Ġfear": 2556,
      "men": 2557,
      "Ġdef": 2558,
      "Ġknown": 2559,
      "orm": 2560,
      "ament": 2561,
      "Ġsoon": 2562,
      "Ġclaim": 2563,
      "Ġintuitive": 2564,
      "Ġtransformation": 2565,
      "ga": 2566,
      "may": 2567,
      "erve": 2568,
      "ogether": 2569,
      "intell": 2570,
      "Ġsignificance": 2571,
      "cut": 2572,
      "Ġculture": 2573,
      "Ġparticular": 2574,
      "Ġcreate": 2575,
      "ugust": 2576,
      "air": 2577,
      "xt": 2578,
      "Ġcivil": 2579,
      "Ġheight": 2580,
      "Ġter": 2581,
      "Ġturned": 2582,
      "itself": 2583,
      "isdom": 2584,
      "ased": 2585,
      "Ġlabour": 2586,
      "certain": 2587,
      "Ġvarious": 2588,
      "pur": 2589,
      "Ġgreatness": 2590,
      "Ġswift": 2591,
      "Ġpat": 2592,
      "ices": 2593,
      "Ġnumber": 2594,
      "what": 2595,
      "Ġdomin": 2596,
      "arther": 2597,
      "Ġformul": 2598,
      "Ġdetail": 2599,
      "Ġpred": 2600,
      "Chapter": 2601,
      "Ġep": 2602,
      "Ġrich": 2603,
      "Ġpartial": 2604,
      "pathy": 2605,
      "Ġintensity": 2606,
      "Ġgoing": 2607,
      "Ġrelations": 2608,
      "Ġeth": 2609,
      "Ġresistance": 2610,
      "things": 2611,
      "Ġdesires": 2612,
      "cause": 2613,
      "Ġwid": 2614,
      "ĠRE": 2615,
      "Ġdescri": 2616,
      "Ġbod": 2617,
      "Ġfru": 2618,
      "Ġpoetic": 2619,
      "Ġpractical": 2620,
      "yam": 2621,
      "Ġcomp": 2622,
      "ĠCongress": 2623,
      "ses": 2624,
      "Ġ18": 2625,
      "Ġotherwise": 2626,
      "Ġignorant": 2627,
      "Ġdraw": 2628,
      "Ġrepe": 2629,
      "Ġarrive": 2630,
      "Ġpleasure": 2631,
      "ze": 2632,
      "pril": 2633,
      "Ġintuition": 2634,
      "these": 2635,
      "ĠMa": 2636,
      "Ġincreasing": 2637,
      "dra": 2638,
      "oke": 2639,
      "Ġmotion": 2640,
      "ival": 2641,
      "ĠSun": 2642,
      "IS": 2643,
      "Not": 2644,
      "Ġdanger": 2645,
      "Ġpowerful": 2646,
      "11": 2647,
      "Ġverse": 2648,
      "Ġoneness": 2649,
      "Ġsight": 2650,
      "Ġhidden": 2651,
      "Ġneither": 2652,
      "ĠGree": 2653,
      "Ġelements": 2654,
      "verse": 2655,
      "Ġdeg": 2656,
      "Ġmag": 2657,
      "Ġhaving": 2658,
      "ĠTwo": 2659,
      "plend": 2660,
      "Ġremains": 2661,
      "iffe": 2662,
      "Ġprodu": 2663,
      "ried": 2664,
      "Ġnormal": 2665,
      "would": 2666,
      "Ġdep": 2667,
      "aneous": 2668,
      "Ġheld": 2669,
      "ĠLove": 2670,
      "ĠHimself": 2671,
      "ively": 2672,
      "Ġsource": 2673,
      "ĠBritish": 2674,
      "ibility": 2675,
      "Ġasso": 2676,
      "Ġshort": 2677,
      "Ġsuffering": 2678,
      "must": 2679,
      "Ġbreat": 2680,
      "Ġvol": 2681,
      "uly": 2682,
      "iti": 2683,
      "AL": 2684,
      "ucation": 2685,
      "Ġthus": 2686,
      "manifest": 2687,
      "ĠSuper": 2688,
      "oman": 2689,
      "Ġma": 2690,
      "ANA": 2691,
      "ĠNe": 2692,
      "US": 2693,
      "gy": 2694,
      "human": 2695,
      "rain": 2696,
      "Ġunion": 2697,
      "atory": 2698,
      "anam": 2699,
      "work": 2700,
      "No": 2701,
      "Ġhost": 2702,
      "aced": 2703,
      "ann": 2704,
      "ĠRish": 2705,
      "Ġanswer": 2706,
      "Ġstress": 2707,
      "suff": 2708,
      "Ġattitude": 2709,
      "Ġlarger": 2710,
      "Ġnone": 2711,
      "ĠAÃĪ": 2712,
      "ĠNo": 2713,
      "ĠUpanishads": 2714,
      "acle": 2715,
      "Â«": 2716,
      "Ġbattle": 2717,
      "atus": 2718,
      "Ġtell": 2719,
      "ury": 2720,
      "Ġcapable": 2721,
      "IE": 2722,
      "lim": 2723,
      "Ġcontrary": 2724,
      "Ġinspiration": 2725,
      "Ġstream": 2726,
      "clus": 2727,
      "Ġblind": 2728,
      "Ġeasy": 2729,
      "Ġdeeper": 2730,
      "Ġcapacity": 2731,
      "Ġfront": 2732,
      "Ġemerg": 2733,
      "Ġsimply": 2734,
      "Ġpublic": 2735,
      "Â¿": 2736,
      "Ġtoday": 2737,
      "Ġimmortal": 2738,
      "porary": 2739,
      "Is": 2740,
      "gment": 2741,
      "hig": 2742,
      "oured": 2743,
      "ĠKrishna": 2744,
      "Ġpursu": 2745,
      "lar": 2746,
      "mat": 2747,
      "Ġgot": 2748,
      "Ġconstitut": 2749,
      "Ġtaking": 2750,
      "sat": 2751,
      "wa": 2752,
      "Ġneeded": 2753,
      "Ġbuild": 2754,
      "Ġdynamic": 2755,
      "ourage": 2756,
      "Ġimpulse": 2757,
      "14": 2758,
      "Ġcry": 2759,
      "Ġalthough": 2760,
      "Ġrul": 2761,
      "Ġcarry": 2762,
      "Ġgn": 2763,
      "Ġseeing": 2764,
      "thought": 2765,
      "Ġbelieve": 2766,
      "Ġobscure": 2767,
      "ract": 2768,
      "blem": 2769,
      "Ġworkings": 2770,
      "Ġnar": 2771,
      "Ġmem": 2772,
      "Ġincrease": 2773,
      "OR": 2774,
      "With": 2775,
      "ĠSans": 2776,
      "ĠHindu": 2777,
      "ĠIts": 2778,
      "Ġrealise": 2779,
      "ptember": 2780,
      "Ġneg": 2781,
      "Ġlord": 2782,
      "uscript": 2783,
      "hile": 2784,
      "ls": 2785,
      "Ġbar": 2786,
      "Ġpri": 2787,
      "SA": 2788,
      "Ġessence": 2789,
      "Ġtemper": 2790,
      "Ġimportance": 2791,
      "Ġmother": 2792,
      "acy": 2793,
      "Ġstud": 2794,
      "uses": 2795,
      "Ġpassage": 2796,
      "ssays": 2797,
      "then": 2798,
      "ilar": 2799,
      "oved": 2800,
      "herent": 2801,
      "Ġexam": 2802,
      "Ġideality": 2803,
      "God": 2804,
      "Ġfather": 2805,
      "13": 2806,
      "vital": 2807,
      "pped": 2808,
      "ison": 2809,
      "adow": 2810,
      "ught": 2811,
      "shw": 2812,
      "Ġfarther": 2813,
      "Ġtry": 2814,
      "Ġgoal": 2815,
      "eless": 2816,
      "Sh": 2817,
      "ribut": 2818,
      "Ġste": 2819,
      "Then": 2820,
      "ired": 2821,
      "Ġimpress": 2822,
      "Ġarm": 2823,
      "ĠKing": 2824,
      "uct": 2825,
      "ĠAa": 2826,
      "Ġpsychological": 2827,
      "Ġleave": 2828,
      "ĠMy": 2829,
      "ĠPar": 2830,
      "Ġoper": 2831,
      "Ġinterpret": 2832,
      "At": 2833,
      "born": 2834,
      "Ġprop": 2835,
      "poss": 2836,
      "sense": 2837,
      "ats": 2838,
      "Ġinert": 2839,
      "ĠApril": 2840,
      "Ġbeautiful": 2841,
      "ĠAv": 2842,
      "ĠBudd": 2843,
      "arya": 2844,
      "Ġmaking": 2845,
      "onder": 2846,
      "Ġtrikaldrishti": 2847,
      "iding": 2848,
      "Ġsuppose": 2849,
      "Ġfulfilment": 2850,
      "aras": 2851,
      "Ġtheory": 2852,
      "Ġhast": 2853,
      "ĠAsram": 2854,
      "Ġindepend": 2855,
      "Ġjour": 2856,
      "ected": 2857,
      "NE": 2858,
      "Å«": 2859,
      "than": 2860,
      "Ġunf": 2861,
      "Ġfeels": 2862,
      "alk": 2863,
      "mer": 2864,
      "Ã±": 2865,
      "amp": 2866,
      "Ġexp": 2867,
      "She": 2868,
      "ges": 2869,
      "Ġevent": 2870,
      "aaa": 2871,
      "Ġcrow": 2872,
      "Ġrit": 2873,
      "phere": 2874,
      "icher": 2875,
      "Ġconv": 2876,
      "Ġnext": 2877,
      "ets": 2878,
      "Ġprepar": 2879,
      "ĠSeptember": 2880,
      "Ġopin": 2881,
      "Ġbear": 2882,
      "Ġmut": 2883,
      "ĠAl": 2884,
      "Ġpoem": 2885,
      "Ġgodhead": 2886,
      "Ġdecl": 2887,
      "aces": 2888,
      "pared": 2889,
      "ĠNI": 2890,
      "Ġimportant": 2891,
      "So": 2892,
      "Ġhome": 2893,
      "CA": 2894,
      "ele": 2895,
      "oup": 2896,
      "Ġnations": 2897,
      "Ġintegral": 2898,
      "ock": 2899,
      "ush": 2900,
      "Ġcreative": 2901,
      "Ġobjects": 2902,
      "experience": 2903,
      "15": 2904,
      "esthe": 2905,
      "Ġneeds": 2906,
      "Ġsilent": 2907,
      "Ġinfer": 2908,
      "rench": 2909,
      "Ġsurrender": 2910,
      "They": 2911,
      "Ġbelow": 2912,
      "Ġoccasion": 2913,
      "ague": 2914,
      "clusion": 2915,
      "Ġafterwards": 2916,
      "lit": 2917,
      "present": 2918,
      "Ġsplend": 2919,
      "Ġvijnana": 2920,
      "20": 2921,
      "cean": 2922,
      "arer": 2923,
      "One": 2924,
      "cle": 2925,
      "Ġperce": 2926,
      "Ġsubjective": 2927,
      "Ġphilosophy": 2928,
      "complete": 2929,
      "Ġaut": 2930,
      "ĠThen": 2931,
      "ĠGodhead": 2932,
      "Thou": 2933,
      "Ġwriting": 2934,
      "ĠAugust": 2935,
      "Ġinstinct": 2936,
      "formation": 2937,
      "ĠReality": 2938,
      "ames": 2939,
      "Ġcircumstances": 2940,
      "ĠBar": 2941,
      "Ġearly": 2942,
      "Ġfrequ": 2943,
      "Her": 2944,
      "Ġnon": 2945,
      "Ġask": 2946,
      "avour": 2947,
      "racy": 2948,
      "rer": 2949,
      "Ġsud": 2950,
      "Ġbrill": 2951,
      "Ġposition": 2952,
      "ĠAf": 2953,
      "ĠEssays": 2954,
      "been": 2955,
      "Ġfigure": 2956,
      "soul": 2957,
      "Ġappearance": 2958,
      "Ġinevitable": 2959,
      "Ġred": 2960,
      "Ġseven": 2961,
      "Ġlikely": 2962,
      "inate": 2963,
      "stitut": 2964,
      "Ġ194": 2965,
      "son": 2966,
      "alt": 2967,
      "Ġexpect": 2968,
      "Ġminds": 2969,
      "Ġforth": 2970,
      "Ġprob": 2971,
      "ĠJune": 2972,
      "Ġbreak": 2973,
      "pired": 2974,
      "Ġunless": 2975,
      "posed": 2976,
      "ras": 2977,
      "itness": 2978,
      "Ġtook": 2979,
      "Ġdon": 2980,
      "Ġleg": 2981,
      "Ġacqu": 2982,
      "Ġsadhak": 2983,
      "Ġpractice": 2984,
      "ĠShakti": 2985,
      "effect": 2986,
      "Ġpot": 2987,
      "gen": 2988,
      "Ġfood": 2989,
      "Ġconception": 2990,
      "ĠBy": 2991,
      "vere": 2992,
      "ceptions": 2993,
      "Ġtele": 2994,
      "round": 2995,
      "ĠJan": 2996,
      "Ġimmediate": 2997,
      "OA": 2998,
      "truth": 2999,
      "Ġintense": 3000,
      "Ġfoundation": 3001,
      "ebru": 3002,
      "sa": 3003,
      "Ġec": 3004,
      "ĠIV": 3005,
      "Ġobstru": 3006,
      "Ġexact": 3007,
      "Ġ10": 3008,
      "Ġsubconscient": 3009,
      "Ġ1936": 3010,
      "ĠHuman": 3011,
      "ik": 3012,
      "ivers": 3013,
      "Ġwaters": 3014,
      "chool": 3015,
      "some": 3016,
      "Ġgiving": 3017,
      "ebruary": 3018,
      "oney": 3019,
      "uary": 3020,
      "Ġsea": 3021,
      "Ġreceive": 3022,
      "Ġfacult": 3023,
      "uge": 3024,
      "itra": 3025,
      "Ġren": 3026,
      "vers": 3027,
      "que": 3028,
      "ken": 3029,
      "Ġextend": 3030,
      "Ġlipi": 3031,
      "Ġissu": 3032,
      "stant": 3033,
      "rop": 3034,
      "Ġlay": 3035,
      "Ġaffect": 3036,
      "Ġdiscover": 3037,
      "PA": 3038,
      "eds": 3039,
      "hav": 3040,
      "Ġenv": 3041,
      "inted": 3042,
      "30": 3043,
      "Ġways": 3044,
      "Ġstands": 3045,
      "Ġgrowing": 3046,
      "known": 3047,
      "ring": 3048,
      "way": 3049,
      "Ġsuperi": 3050,
      "Con": 3051,
      "oon": 3052,
      "Ġtamas": 3053,
      "lect": 3054,
      "Re": 3055,
      "TE": 3056,
      "ĠIN": 3057,
      "andala": 3058,
      "ĠBande": 3059,
      "Ġvirt": 3060,
      "Ġinward": 3061,
      "ĠTherefore": 3062,
      "ĠGods": 3063,
      "Ġ1933": 3064,
      "TS": 3065,
      "Ġfinally": 3066,
      "Ġreach": 3067,
      "Ġgave": 3068,
      "Ġ15": 3069,
      "achment": 3070,
      "ANI": 3071,
      "Ġprinciples": 3072,
      "18": 3073,
      "Ġburn": 3074,
      "ĠSupreme": 3075,
      "ians": 3076,
      "Ġche": 3077,
      "bh": 3078,
      "Ġfeet": 3079,
      "Ġconstantly": 3080,
      "Ġoneself": 3081,
      "rupt": 3082,
      "Ġimages": 3083,
      "Ġpossibilities": 3084,
      "Ġsudden": 3085,
      "Ġtrad": 3086,
      "These": 3087,
      "ension": 3088,
      "lt": 3089,
      "trans": 3090,
      "ani": 3091,
      "cember": 3092,
      "ĠSy": 3093,
      "oses": 3094,
      "ortion": 3095,
      "awn": 3096,
      "nor": 3097,
      "Ġrele": 3098,
      "ĠIde": 3099,
      "Ġchief": 3100,
      "ĠAng": 3101,
      "Ġyear": 3102,
      "Ġunderstanding": 3103,
      "Ġmechanical": 3104,
      "oid": 3105,
      "Ġpie": 3106,
      "cape": 3107,
      "inction": 3108,
      "Ġinf": 3109,
      "Ġmus": 3110,
      "Ġcompe": 3111,
      "Ġimagination": 3112,
      "Ġyoung": 3113,
      "Ġmystic": 3114,
      "lo": 3115,
      "Ġought": 3116,
      "encies": 3117,
      "Ġround": 3118,
      "Ġhero": 3119,
      "Ġwind": 3120,
      "Ġfailure": 3121,
      "Ġsit": 3122,
      "ĠMaya": 3123,
      "Ġactions": 3124,
      "produ": 3125,
      "conscience": 3126,
      "ĠWorld": 3127,
      "writ": 3128,
      "change": 3129,
      "ĠMaster": 3130,
      "ountain": 3131,
      "Ġrun": 3132,
      "imm": 3133,
      "Ġlatter": 3134,
      "Ġstates": 3135,
      "Ġintend": 3136,
      "Ġrad": 3137,
      "Ġliberation": 3138,
      "Ġphilosoph": 3139,
      "Ġcertainly": 3140,
      "bsolute": 3141,
      "Who": 3142,
      "Sri": 3143,
      "arsh": 3144,
      "Ġdisturb": 3145,
      "Ġaccepted": 3146,
      "Ġviolent": 3147,
      "rat": 3148,
      "somet": 3149,
      "val": 3150,
      "Ġsorrow": 3151,
      "ĠFebruary": 3152,
      "Ġaffirm": 3153,
      "Ġemotional": 3154,
      "Ġdue": 3155,
      "Ġwealth": 3156,
      "Ġbegins": 3157,
      "ĠZA": 3158,
      "Mother": 3159,
      "ories": 3160,
      "Ġhour": 3161,
      "Ġinstead": 3162,
      "Ġrecur": 3163,
      "Ġphr": 3164,
      "mos": 3165,
      "oned": 3166,
      "overy": 3167,
      "ĠAd": 3168,
      "iva": 3169,
      "ondicher": 3170,
      "armay": 3171,
      "ondicherry": 3172,
      "Ġstri": 3173,
      "Ġsym": 3174,
      "Ġ1934": 3175,
      "aries": 3176,
      "ĠMarch": 3177,
      "osing": 3178,
      "het": 3179,
      "Ġduring": 3180,
      "Ġspite": 3181,
      "develop": 3182,
      "rahman": 3183,
      "mission": 3184,
      "Ġmaintain": 3185,
      "Ġhistory": 3186,
      "inter": 3187,
      "ishes": 3188,
      "Ġmark": 3189,
      "ervous": 3190,
      "Ġconcentration": 3191,
      "Ġethical": 3192,
      "34": 3193,
      "rial": 3194,
      "Ġperman": 3195,
      "Ġ1935": 3196,
      "Ġcentral": 3197,
      "Ġecst": 3198,
      "read": 3199,
      "Ġarrange": 3200,
      "Ġestablish": 3201,
      "Indian": 3202,
      "Ġsurv": 3203,
      "DA": 3204,
      "divine": 3205,
      "Ġbecame": 3206,
      "Ġseeks": 3207,
      "Ġpositive": 3208,
      "Ġsan": 3209,
      "ĠBh": 3210,
      "Ġmeasure": 3211,
      "Ġcreates": 3212,
      "Ġconstru": 3213,
      "Ġsatisfaction": 3214,
      "pet": 3215,
      "Ġprecise": 3216,
      "inity": 3217,
      "let": 3218,
      "ĠPI": 3219,
      "Ġground": 3220,
      "movement": 3221,
      "vas": 3222,
      "Ġpurity": 3223,
      "Ġweakness": 3224,
      "Ġaesthe": 3225,
      "Ġnervous": 3226,
      "ifficult": 3227,
      "Ex": 3228,
      "Ġhearts": 3229,
      "Ġwaking": 3230,
      "comes": 3231,
      "Ġbegan": 3232,
      "Ġenjoyment": 3233,
      "Ġlimits": 3234,
      "29": 3235,
      "Ġae": 3236,
      "rist": 3237,
      "Ġsam": 3238,
      "Ġconcentr": 3239,
      "Ġaltogether": 3240,
      ",âĢĿ": 3241,
      "Divine": 3242,
      "Ġadm": 3243,
      "necess": 3244,
      "ĠJuly": 3245,
      "flict": 3246,
      "ĠSoul": 3247,
      "Ġindis": 3248,
      "forms": 3249,
      "without": 3250,
      "through": 3251,
      "Ġkinds": 3252,
      "after": 3253,
      "Ġpen": 3254,
      "oma": 3255,
      "seen": 3256,
      "OL": 3257,
      "my": 3258,
      "Ġconsequ": 3259,
      "Ġstatus": 3260,
      "Ġprim": 3261,
      "Ġawaken": 3262,
      "Ã©": 3263,
      "ogin": 3264,
      "Ġrapt": 3265,
      "Ġtyp": 3266,
      "sur": 3267,
      "ena": 3268,
      "Ġmas": 3269,
      "hab": 3270,
      "ĠState": 3271,
      "uff": 3272,
      "Ġformer": 3273,
      "Ġflame": 3274,
      "Ġhappy": 3275,
      "satisf": 3276,
      "Ġhur": 3277,
      "ĠPh": 3278,
      "ressed": 3279,
      "Ġenergies": 3280,
      "Ġinferior": 3281,
      "ingu": 3282,
      "Ġfav": 3283,
      "Ġfinds": 3284,
      "Ġsimilar": 3285,
      "unity": 3286,
      "Ġobl": 3287,
      "Ġdepends": 3288,
      "Ġi": 3289,
      "Ġmir": 3290,
      "Ġdh": 3291,
      "ĠWord": 3292,
      "existent": 3293,
      "Ġsouls": 3294,
      "Ġfier": 3295,
      "hava": 3296,
      "ĠWh": 3297,
      "Ġsucceed": 3298,
      "rog": 3299,
      "Ġflow": 3300,
      "inte": 3301,
      "orious": 3302,
      "Ãł": 3303,
      "igh": 3304,
      "rue": 3305,
      "pline": 3306,
      "mosphere": 3307,
      "Ġfight": 3308,
      "ĠBl": 3309,
      "Ġformation": 3310,
      "Ġdestroy": 3311,
      "Ġforeign": 3312,
      "bar": 3313,
      "ius": 3314,
      "vell": 3315,
      "Ġmanuscript": 3316,
      "Ġgreatest": 3317,
      "Ġobv": 3318,
      "bling": 3319,
      "aughter": 3320,
      "By": 3321,
      "Ġfix": 3322,
      "Ġhymn": 3323,
      "ĠIE": 3324,
      "elight": 3325,
      "Ġcloud": 3326,
      "Ġprevent": 3327,
      "Ġprofound": 3328,
      "ĠDecember": 3329,
      "Ġsuggestions": 3330,
      "ĠJanuary": 3331,
      "ging": 3332,
      "ober": 3333,
      "iveness": 3334,
      "undred": 3335,
      "Ġinstruments": 3336,
      "eavour": 3337,
      "Ġsake": 3338,
      "icy": 3339,
      "Ġsex": 3340,
      "Ġsty": 3341,
      "thap": 3342,
      "auc": 3343,
      "Ġcomplex": 3344,
      "eff": 3345,
      "Ġult": 3346,
      "Ġworship": 3347,
      "ishing": 3348,
      "Ġcharacteristic": 3349,
      "Ġgolden": 3350,
      "MA": 3351,
      "just": 3352,
      "Ġair": 3353,
      "Ġvers": 3354,
      "conom": 3355,
      "Ġsupermind": 3356,
      "Ġcorrect": 3357,
      "atust": 3358,
      "Ġlow": 3359,
      "stood": 3360,
      "Our": 3361,
      "ĠScience": 3362,
      "Ġkept": 3363,
      "Ġoccult": 3364,
      "Ġgrief": 3365,
      "Ġshadow": 3366,
      "Ġfounded": 3367,
      "ifying": 3368,
      "Ġscience": 3369,
      "also": 3370,
      "Ġcover": 3371,
      "ĠIR": 3372,
      "ĠHow": 3373,
      "ession": 3374,
      "Ġdefinite": 3375,
      "ovember": 3376,
      "Ġthr": 3377,
      "ctober": 3378,
      "ĠRa": 3379,
      "Ġfacts": 3380,
      "Ġmemory": 3381,
      "Ġheard": 3382,
      "Ġsuggestion": 3383,
      "Ġsamadhi": 3384,
      "Ġmil": 3385,
      "ayana": 3386,
      "Ġsum": 3387,
      "HE": 3388,
      "expression": 3389,
      "Ġevol": 3390,
      "Ġobserv": 3391,
      "Ġliberty": 3392,
      "Ġconnection": 3393,
      "thapana": 3394,
      "Ġboy": 3395,
      "eterm": 3396,
      "iddle": 3397,
      "Ġartic": 3398,
      "pensable": 3399,
      "ĠSupermind": 3400,
      "Ġbrilliant": 3401,
      "tered": 3402,
      "estions": 3403,
      "sychic": 3404,
      "Ġpriest": 3405,
      "shwara": 3406,
      "itud": 3407,
      "ĠAbsolute": 3408,
      "Ġtruths": 3409,
      "OM": 3410,
      "first": 3411,
      "Ġdead": 3412,
      "finity": 3413,
      "Ġspecial": 3414,
      "Ġinstance": 3415,
      "Ġinclud": 3416,
      "ĠMod": 3417,
      "aches": 3418,
      "Ġeverywhere": 3419,
      "osis": 3420,
      "ĠHeaven": 3421,
      "Ġdisappear": 3422,
      "Let": 3423,
      "ficial": 3424,
      "spe": 3425,
      "Ġ=": 3426,
      "Ġshape": 3427,
      "Ġfit": 3428,
      "birth": 3429,
      "ee": 3430,
      "iting": 3431,
      "ĠShe": 3432,
      "Ġsatisfied": 3433,
      "Ġwonder": 3434,
      "Ġwhite": 3435,
      "afa": 3436,
      "Ġaccompl": 3437,
      "Ġnarrow": 3438,
      "aves": 3439,
      "right": 3440,
      "ĠEngland": 3441,
      "Ġescape": 3442,
      "cott": 3443,
      "ĠKarmay": 3444,
      "aving": 3445,
      "erate": 3446,
      "Ġwisdom": 3447,
      "Ġgovern": 3448,
      "utable": 3449,
      "Ġsecure": 3450,
      "17": 3451,
      "aff": 3452,
      "pace": 3453,
      "Ġmould": 3454,
      "ĠOur": 3455,
      "aste": 3456,
      "ANT": 3457,
      "Ġfeelings": 3458,
      "cap": 3459,
      "isible": 3460,
      "Ġsac": 3461,
      "ĠPres": 3462,
      "Ġtrying": 3463,
      "Ġvari": 3464,
      "Ġfullness": 3465,
      "Ġsacrific": 3466,
      "Ġadvance": 3467,
      "Ġcivilisation": 3468,
      "cer": 3469,
      "ĠOver": 3470,
      "orous": 3471,
      "ĠBook": 3472,
      "Ġmankind": 3473,
      "Ġspont": 3474,
      "Ġhappen": 3475,
      "Ġoccur": 3476,
      "UR": 3477,
      "ox": 3478,
      "ratic": 3479,
      "aruna": 3480,
      "Ġdivid": 3481,
      "Ġbrother": 3482,
      "ĠANA": 3483,
      "pramental": 3484,
      "Ġsteps": 3485,
      "Ġfunction": 3486,
      "ipl": 3487,
      "irable": 3488,
      "ĠSR": 3489,
      "Ġachieve": 3490,
      "Mandala": 3491,
      "iny": 3492,
      "Ġformed": 3493,
      "Ġgets": 3494,
      "Ġtold": 3495,
      "Ġrig": 3496,
      "Ġfruit": 3497,
      "Ġaar": 3498,
      "Ġscient": 3499,
      "Ġpa": 3500,
      "Ġequ": 3501,
      "Ġexceed": 3502,
      "âĢĿ;": 3503,
      "Ġparty": 3504,
      "Ġturns": 3505,
      "ni": 3506,
      "Ġmid": 3507,
      "Ġcut": 3508,
      "Ġgrad": 3509,
      "coming": 3510,
      "Ġenem": 3511,
      "were": 3512,
      "Ġfollowed": 3513,
      "Ġgrasp": 3514,
      "had": 3515,
      "anced": 3516,
      "ĠNovember": 3517,
      "ishw": 3518,
      "Ġlaws": 3519,
      "liber": 3520,
      "Ġequality": 3521,
      "Ġcolour": 3522,
      "creat": 3523,
      "ureauc": 3524,
      "Ġchanged": 3525,
      "ĠGreek": 3526,
      "acrifice": 3527,
      "Ġaccount": 3528,
      "bet": 3529,
      "ĠAO": 3530,
      "Ġpray": 3531,
      "Ġbringing": 3532,
      "uddhi": 3533,
      "Ġhardly": 3534,
      "Ġbes": 3535,
      "Ġnote": 3536,
      "rences": 3537,
      "cons": 3538,
      "Ġinspired": 3539,
      "bel": 3540,
      "aling": 3541,
      "Ġseer": 3542,
      "because": 3543,
      "inking": 3544,
      "Ġmanifested": 3545,
      "iety": 3546,
      "omb": 3547,
      "ishn": 3548,
      "Ġhostile": 3549,
      "Ġthous": 3550,
      "ĠOctober": 3551,
      "16": 3552,
      "26": 3553,
      "uru": 3554,
      "ĠSat": 3555,
      "Ġsadhaks": 3556,
      "Ġslight": 3557,
      "Ġexists": 3558,
      "olt": 3559,
      "Ġrational": 3560,
      "ieved": 3561,
      "Ġacting": 3562,
      "ĠOnly": 3563,
      "Ġdivision": 3564,
      "Ġdawn": 3565,
      "Un": 3566,
      "cene": 3567,
      "Ġomn": 3568,
      "Ġbad": 3569,
      "Ġhor": 3570,
      "enth": 3571,
      "Ġvivid": 3572,
      "astic": 3573,
      "Ġoccup": 3574,
      "Ġorganisation": 3575,
      "Ġqualities": 3576,
      "Ġtotal": 3577,
      "Ġbal": 3578,
      "Ġ13": 3579,
      "Ġrealised": 3580,
      "Force": 3581,
      "Ġegoistic": 3582,
      "path": 3583,
      "uation": 3584,
      "Ġguard": 3585,
      "Ġpersistent": 3586,
      "Ġbur": 3587,
      "Ġglory": 3588,
      "Ġorganised": 3589,
      "anged": 3590,
      "nergy": 3591,
      "ĠARA": 3592,
      "Ġroom": 3593,
      "Ġmethods": 3594,
      "Ġopinion": 3595,
      "ural": 3596,
      "Ġdepart": 3597,
      "uss": 3598,
      "Ġdiss": 3599,
      "Ġpassive": 3600,
      "osmos": 3601,
      "Ġappears": 3602,
      "fort": 3603,
      "lations": 3604,
      "Ġhundred": 3605,
      "ĠTE": 3606,
      "oda": 3607,
      "iled": 3608,
      "occ": 3609,
      "Ġservice": 3610,
      "ney": 3611,
      "Ġaesthetic": 3612,
      "az": 3613,
      "Ġsend": 3614,
      "ĠDo": 3615,
      "Ġimpersonal": 3616,
      "Ġendeavour": 3617,
      "?âĢĿ": 3618,
      "Nature": 3619,
      "gin": 3620,
      "icism": 3621,
      "Ġgone": 3622,
      "Ġasked": 3623,
      "Ġsever": 3624,
      "Ġvig": 3625,
      "Ġproblem": 3626,
      "Ġextent": 3627,
      "Ġgrand": 3628,
      "Ġphenomena": 3629,
      "Ġopposite": 3630,
      "Ġstyle": 3631,
      "itial": 3632,
      "order": 3633,
      "Ġsimple": 3634,
      "how": 3635,
      "Ġbrief": 3636,
      "Ġhear": 3637,
      "Ġjo": 3638,
      "comm": 3639,
      "Ġfulfilled": 3640,
      "Ġcrude": 3641,
      "word": 3642,
      "erved": 3643,
      "iron": 3644,
      "Ġallowed": 3645,
      "Ġbond": 3646,
      "Ġinsist": 3647,
      "ĠQ": 3648,
      "Ġleaders": 3649,
      "your": 3650,
      "Ġur": 3651,
      "Ġmoves": 3652,
      "Ġdecis": 3653,
      "Ġwent": 3654,
      "Ġfell": 3655,
      "Ġananda": 3656,
      "Ġmoon": 3657,
      "Ġ20": 3658,
      "Ġdreams": 3659,
      "Ġlist": 3660,
      "ĠTapas": 3661,
      "Ġschool": 3662,
      "asya": 3663,
      "Ġopposition": 3664,
      "Ġmiss": 3665,
      "Ġfort": 3666,
      "intellect": 3667,
      "wing": 3668,
      "ĠHymns": 3669,
      "Ġafa": 3670,
      "Ġfigures": 3671,
      "Ġintended": 3672,
      "time": 3673,
      "Ġdimin": 3674,
      "Ġeconom": 3675,
      "iversal": 3676,
      "ĠKarma": 3677,
      "Ġillusion": 3678,
      "Ġeducation": 3679,
      "Ġvictory": 3680,
      "enced": 3681,
      "ĠIT": 3682,
      "Ġovercome": 3683,
      "hand": 3684,
      "Ġchance": 3685,
      "Ġprepared": 3686,
      "Ġhymns": 3687,
      "ĠMe": 3688,
      "uality": 3689,
      "Ġimmense": 3690,
      "Ġpeoples": 3691,
      "Ġgroup": 3692,
      "Ġ1907": 3693,
      "ister": 3694,
      "Ġbreath": 3695,
      "cern": 3696,
      "owards": 3697,
      "Ġaspects": 3698,
      "Ġtemperament": 3699,
      "ura": 3700,
      "idance": 3701,
      "ĠCal": 3702,
      "asha": 3703,
      "Ġpolitics": 3704,
      "Ġsuperior": 3705,
      "raph": 3706,
      "unt": 3707,
      "Ġpolicy": 3708,
      "Ġfollowing": 3709,
      "ran": 3710,
      "ada": 3711,
      "ĠHere": 3712,
      "Ġlimitation": 3713,
      "Ġconfusion": 3714,
      "ĠBengali": 3715,
      "sufficient": 3716,
      "De": 3717,
      "Ġidentity": 3718,
      "Ġassoci": 3719,
      "50": 3720,
      "Ġhill": 3721,
      "Ġnaturally": 3722,
      "24": 3723,
      "onse": 3724,
      "Ġbrain": 3725,
      "Ġdouble": 3726,
      "Ġnoble": 3727,
      "Ġrespect": 3728,
      "Ġappre": 3729,
      "Ġsafe": 3730,
      "Ġintention": 3731,
      "Ġremember": 3732,
      "Ġpoets": 3733,
      "Ġequally": 3734,
      "ecut": 3735,
      "Ġliterature": 3736,
      "CE": 3737,
      "Ġbus": 3738,
      "ung": 3739,
      "Ġherself": 3740,
      "adhana": 3741,
      "Ġimmortality": 3742,
      "ĠChrist": 3743,
      "Ġimmediately": 3744,
      ":,": 3745,
      "inations": 3746,
      "Ġder": 3747,
      "ĠFrench": 3748,
      "ARA": 3749,
      "Ġ17": 3750,
      "Ġdirection": 3751,
      "ĠIsha": 3752,
      "Ġstraight": 3753,
      "Ġbroken": 3754,
      "bers": 3755,
      "reme": 3756,
      "Ġfine": 3757,
      "Ġatmosphere": 3758,
      "Ġtrouble": 3759,
      "Ġfair": 3760,
      "Ġseemed": 3761,
      "Ġoffer": 3762,
      "Ġchildren": 3763,
      "ĠMI": 3764,
      "Ġpassed": 3765,
      "itary": 3766,
      "Ġbase": 3767,
      "ĠRI": 3768,
      "Ġillumined": 3769,
      "Ġmotive": 3770,
      "vation": 3771,
      "Ã¨": 3772,
      "chol": 3773,
      "Ġmer": 3774,
      "enty": 3775,
      "ternity": 3776,
      "Ġstrange": 3777,
      "Ġbegun": 3778,
      "Ġauthority": 3779,
      "always": 3780,
      "Ġmeditation": 3781,
      "How": 3782,
      "orical": 3783,
      "Ġled": 3784,
      "Ġcontain": 3785,
      "ĠIshwara": 3786,
      "Ġvain": 3787,
      "many": 3788,
      "ron": 3789,
      "turn": 3790,
      "Ġ-": 3791,
      "Ġspace": 3792,
      "ĠExistence": 3793,
      "ĠAryan": 3794,
      "ued": 3795,
      "Ã¤": 3796,
      "Ä±": 3797,
      "ĠEv": 3798,
      "der": 3799,
      "ub": 3800,
      "resh": 3801,
      "ĠPondicherry": 3802,
      "formed": 3803,
      "Ġabsor": 3804,
      "Ġcollect": 3805,
      "28": 3806,
      "Ġtext": 3807,
      "riot": 3808,
      "Ar": 3809,
      "ike": 3810,
      "lly": 3811,
      "place": 3812,
      "ersonality": 3813,
      "Ġquality": 3814,
      "Ġvirtue": 3815,
      "Ġultimate": 3816,
      "view": 3817,
      "Ġtong": 3818,
      "alid": 3819,
      "Ġrecent": 3820,
      "ĠInt": 3821,
      "Ġegoism": 3822,
      "Ġoffering": 3823,
      "ĠKarmayogin": 3824,
      "ley": 3825,
      "char": 3826,
      "Ġexc": 3827,
      "Ġtradition": 3828,
      "Ġindispensable": 3829,
      "Ġcreatures": 3830,
      "Ġcease": 3831,
      "crit": 3832,
      "ture": 3833,
      "Ġten": 3834,
      "ĠSoma": 3835,
      "ĠMS": 3836,
      "cutta": 3837,
      "Ġdescribed": 3838,
      "Ġlies": 3839,
      "Ġmorning": 3840,
      "ulous": 3841,
      "ĠME": 3842,
      "anto": 3843,
      "Ġuses": 3844,
      "ĠInte": 3845,
      "Ġhappiness": 3846,
      "Ġphenomenon": 3847,
      "Ġtranslation": 3848,
      "Ġrespons": 3849,
      "ax": 3850,
      "limit": 3851,
      "Ġnecessarily": 3852,
      "Ġapart": 3853,
      "Ġstatement": 3854,
      "Ġsett": 3855,
      "Ġtemporary": 3856,
      "ĠArya": 3857,
      "Ġlose": 3858,
      "ĠHer": 3859,
      "auty": 3860,
      "Yes": 3861,
      "aint": 3862,
      "Ġcontrad": 3863,
      "Ġsuccessful": 3864,
      "while": 3865,
      "Ġwise": 3866,
      "lection": 3867,
      "Ġfalsehood": 3868,
      "ifferent": 3869,
      "Ġshap": 3870,
      "ĠAF": 3871,
      "Ġmoving": 3872,
      "Ġ16": 3873,
      "Ġshining": 3874,
      "Ġclearly": 3875,
      "Ġphrase": 3876,
      "fold": 3877,
      "Ġ12": 3878,
      "Ġconcealed": 3879,
      "Ġecstasy": 3880,
      "mod": 3881,
      "energ": 3882,
      "Ġhon": 3883,
      "ici": 3884,
      "inner": 3885,
      "Ġfully": 3886,
      "Ġreceived": 3887,
      "itan": 3888,
      "Ġanal": 3889,
      "Ġseed": 3890,
      "Ġrose": 3891,
      "ifted": 3892,
      "Ġsurround": 3893,
      "ler": 3894,
      "ites": 3895,
      "Ġsumm": 3896,
      "Ġ14": 3897,
      "Its": 3898,
      "Ġinitial": 3899,
      "Ġfat": 3900,
      "iverse": 3901,
      "Ġant": 3902,
      "Ġseat": 3903,
      "ĠCA": 3904,
      "Al": 3905,
      "ople": 3906,
      "lier": 3907,
      "Ġinterpretation": 3908,
      "vi": 3909,
      "Ġstum": 3910,
      "Ġdirectly": 3911,
      "Ġ1914": 3912,
      "07": 3913,
      "oot": 3914,
      "Ġaid": 3915,
      "Ġwish": 3916,
      "Ġbureauc": 3917,
      "set": 3918,
      "Ġconflict": 3919,
      "Act": 3920,
      "Ved": 3921,
      "dh": 3922,
      "sha": 3923,
      "Ġwater": 3924,
      "ĠSome": 3925,
      "Ġinvolved": 3926,
      "Ġtranscendent": 3927,
      "ĠSanskrit": 3928,
      "dess": 3929,
      "eg": 3930,
      "Ġblood": 3931,
      "Ġvolume": 3932,
      "Ġtest": 3933,
      "Ġdom": 3934,
      "Ġnames": 3935,
      "Ġreached": 3936,
      "rav": 3937,
      "ĠPer": 3938,
      "Ġupward": 3939,
      "Ġpassing": 3940,
      "icted": 3941,
      "Ġconfirm": 3942,
      "adeshi": 3943,
      "Ġwideness": 3944,
      "ĠAfter": 3945,
      "Ġmemb": 3946,
      "apse": 3947,
      "Ġfill": 3948,
      "Ġpop": 3949,
      "ĠThree": 3950,
      "Ġsublim": 3951,
      "ĠChand": 3952,
      "dist": 3953,
      "sp": 3954,
      "var": 3955,
      "Ġdistingu": 3956,
      "ĠPRO": 3957,
      "sis": 3958,
      "Ġmach": 3959,
      "arr": 3960,
      "Ġgetting": 3961,
      "Ġturning": 3962,
      "Ġmetap": 3963,
      "Ġsweetness": 3964,
      "Ġembod": 3965,
      "Ġmembers": 3966,
      "haya": 3967,
      "still": 3968,
      "Ġwithdra": 3969,
      "Ġmoved": 3970,
      "iance": 3971,
      "Ġdut": 3972,
      "asures": 3973,
      "ĠVaruna": 3974,
      "ĠThought": 3975,
      "ĠDawn": 3976,
      "Ġobe": 3977,
      "Ġwoman": 3978,
      "Ġfive": 3979,
      "ĠNor": 3980,
      "Ġcontains": 3981,
      "fulf": 3982,
      "Ġ24": 3983,
      "araj": 3984,
      "cription": 3985,
      "poses": 3986,
      "oom": 3987,
      "Ġhours": 3988,
      "chid": 3989,
      "Ġcontinuity": 3990,
      "ĠOvermind": 3991,
      "Ġconver": 3992,
      "ĠZI": 3993,
      ");": 3994,
      "Even": 3995,
      "Yet": 3996,
      "aware": 3997,
      "avit": 3998,
      "put": 3999,
      "rim": 4000,
      "Ġpet": 4001,
      "ĠSpace": 4002,
      "Ġemp": 4003,
      "Ġfinite": 4004,
      "ĠVedanta": 4005,
      "Ġspontaneous": 4006,
      "oil": 4007,
      "Ġvague": 4008,
      "Ġempt": 4009,
      "ĠAAA": 4010,
      "ĠDeath": 4011,
      "Ġbodies": 4012,
      "material": 4013,
      "erves": 4014,
      "ĠWrit": 4015,
      "Ġrajas": 4016,
      "supp": 4017,
      "Ġdetermined": 4018,
      "natur": 4019,
      "Ġmess": 4020,
      "teness": 4021,
      "reason": 4022,
      "cetic": 4023,
      "ĠImm": 4024,
      "ods": 4025,
      "hya": 4026,
      "Ġchari": 4027,
      "irca": 4028,
      "Ġdemands": 4029,
      "Ġkingdom": 4030,
      "Ġmusic": 4031,
      "Ch": 4032,
      "aT": 4033,
      "call": 4034,
      "rance": 4035,
      "ingly": 4036,
      "Ġknew": 4037,
      "els": 4038,
      "Ġliberated": 4039,
      "Ġrigid": 4040,
      "met": 4041,
      "Ġcha": 4042,
      "Ġdram": 4043,
      "acles": 4044,
      "fined": 4045,
      "Ġserious": 4046,
      "Ġinertia": 4047,
      "habit": 4048,
      "Ġgrows": 4049,
      "Ġserve": 4050,
      "From": 4051,
      "nthe": 4052,
      "Ġrequ": 4053,
      "Ġshows": 4054,
      "Ġwholly": 4055,
      "Ġpartly": 4056,
      "does": 4057,
      "outh": 4058,
      "iches": 4059,
      "lling": 4060,
      "Ġstability": 4061,
      "Ġarms": 4062,
      "Ġsubord": 4063,
      "express": 4064,
      "Ġremark": 4065,
      "kÄģ": 4066,
      "Ġmountain": 4067,
      "ĠNS": 4068,
      "ĠNow": 4069,
      "contin": 4070,
      "jo": 4071,
      "Ġenlight": 4072,
      "Ġrupa": 4073,
      "ĠAg": 4074,
      "Ġrecon": 4075,
      "Ġgross": 4076,
      "ĠTI": 4077,
      "Ġgenius": 4078,
      "Ġexpressed": 4079,
      "ĠRishis": 4080,
      "Ġcases": 4081,
      "Ġreprodu": 4082,
      "ĠPe": 4083,
      "umb": 4084,
      "ption": 4085,
      "Ġevidently": 4086,
      "ĠBaroda": 4087,
      "irect": 4088,
      "Ġlogical": 4089,
      "27": 4090,
      "pot": 4091,
      "cannot": 4092,
      "Ġmastery": 4093,
      "Ġocean": 4094,
      "Ġascend": 4095,
      "Ġroad": 4096,
      "Ġviolence": 4097,
      "Ġresponse": 4098,
      "dha": 4099,
      "ray": 4100,
      "ĠSur": 4101,
      "individual": 4102,
      "Ġinterests": 4103,
      "Ġvisible": 4104,
      "avitri": 4105,
      "UN": 4106,
      "same": 4107,
      "Ġlived": 4108,
      "Ġascent": 4109,
      "olit": 4110,
      "ored": 4111,
      "oken": 4112,
      "Ġsatt": 4113,
      "itudes": 4114,
      "antra": 4115,
      "ĠEnergy": 4116,
      "anges": 4117,
      "Ġseveral": 4118,
      "Ġillumination": 4119,
      "Yoga": 4120,
      "Ġalong": 4121,
      "ager": 4122,
      "agger": 4123,
      "Äģna": 4124,
      "Ġapproach": 4125,
      "25": 4126,
      "found": 4127,
      "Ġrange": 4128,
      "unciation": 4129,
      "Ġrare": 4130,
      "Ġdistinction": 4131,
      "Ġextreme": 4132,
      "minist": 4133,
      "curity": 4134,
      "itor": 4135,
      "anim": 4136,
      "terday": 4137,
      "ipi": 4138,
      "Ġprocesses": 4139,
      "Where": 4140,
      "ulg": 4141,
      "acher": 4142,
      "ĠOf": 4143,
      "Ġmanner": 4144,
      "Ġsovere": 4145,
      "Ġmanifests": 4146,
      "Ġsovereign": 4147,
      "DO": 4148,
      "Man": 4149,
      "ĠIm": 4150,
      "Ġabst": 4151,
      "Ġwall": 4152,
      "Ġheav": 4153,
      "Ġaband": 4154,
      "Ġfeature": 4155,
      "culiar": 4156,
      "alidasa": 4157,
      "Ġinternal": 4158,
      "irl": 4159,
      "Ġvib": 4160,
      "jÃ±": 4161,
      "vision": 4162,
      "umm": 4163,
      "Ġimpl": 4164,
      "ĠThou": 4165,
      "Ġchoice": 4166,
      "ME": 4167,
      "ony": 4168,
      "Ġwine": 4169,
      "organ": 4170,
      "Ġholds": 4171,
      "Ġindependent": 4172,
      "Ġenviron": 4173,
      "she": 4174,
      "Ġschol": 4175,
      "Ġcontent": 4176,
      "crete": 4177,
      "Ġglad": 4178,
      "Ġleads": 4179,
      "mitted": 4180,
      "Ġfle": 4181,
      "Ġrecord": 4182,
      "ĠIS": 4183,
      "ordinary": 4184,
      "Ġunderstood": 4185,
      "Ġslay": 4186,
      "Ġdemoc": 4187,
      "Ġchanges": 4188,
      "Ġfaculty": 4189,
      "ostic": 4190,
      "VAS": 4191,
      "Ġprobably": 4192,
      "got": 4193,
      "ĠÅĽ": 4194,
      "Ġintellig": 4195,
      "ĠCalcutta": 4196,
      "every": 4197,
      "Ġunable": 4198,
      "Ġlimitations": 4199,
      "ĠYogic": 4200,
      "Ġdangerous": 4201,
      "Canto": 4202,
      "lying": 4203,
      "imil": 4204,
      "ifies": 4205,
      "aksh": 4206,
      "pel": 4207,
      "haust": 4208,
      "Ġseries": 4209,
      "35": 4210,
      "difficult": 4211,
      "ey": 4212,
      "Ġsav": 4213,
      "Ġexecut": 4214,
      "Ġtouches": 4215,
      "Ġheavens": 4216,
      "Ġsufficiently": 4217,
      "Ġconquer": 4218,
      "31": 4219,
      "lected": 4220,
      "ĠPRI": 4221,
      "Ġintr": 4222,
      "Ġpreced": 4223,
      "Ġflower": 4224,
      "ear": 4225,
      "heart": 4226,
      "again": 4227,
      "Ġinstitut": 4228,
      "Ġbreast": 4229,
      "Ġgrace": 4230,
      "Ġdepths": 4231,
      "Ġjourney": 4232,
      "vention": 4233,
      "Ġdim": 4234,
      "Ġforget": 4235,
      "amaya": 4236,
      "umph": 4237,
      "ĠBliss": 4238,
      "22": 4239,
      "rical": 4240,
      "Ġbird": 4241,
      "Ġmixed": 4242,
      "usal": 4243,
      "Ġsurely": 4244,
      "Ġdiscipline": 4245,
      "Ġexample": 4246,
      "written": 4247,
      "between": 4248,
      "nal": 4249,
      "ÃĢ": 4250,
      "inarily": 4251,
      "Ġsolution": 4252,
      "Ġcourage": 4253,
      "irv": 4254,
      "ĠOF": 4255,
      "ĠLaw": 4256,
      "Ġsword": 4257,
      "Ġbased": 4258,
      "UT": 4259,
      "war": 4260,
      "Ġtit": 4261,
      "separ": 4262,
      "thy": 4263,
      "Ġcommand": 4264,
      "Ġfollows": 4265,
      "Ġsuperficial": 4266,
      "190": 4267,
      "Ġissue": 4268,
      "Ġfate": 4269,
      "cture": 4270,
      "pread": 4271,
      "Ġamount": 4272,
      "ĠARE": 4273,
      "Ġconduct": 4274,
      "Ġpurely": 4275,
      "Ġwants": 4276,
      "Ġcontinues": 4277,
      "ek": 4278,
      "Ġyes": 4279,
      "Ġevidence": 4280,
      "ĠSecret": 4281,
      "Ġobjective": 4282,
      "Ġrecover": 4283,
      "Ġlooks": 4284,
      "Ġvalues": 4285,
      "Ġapplied": 4286,
      "Ġdegree": 4287,
      "Ġsacred": 4288,
      "cious": 4289,
      "ĠFate": 4290,
      "restrial": 4291,
      "Ġleading": 4292,
      "Ġsal": 4293,
      "otions": 4294,
      "rust": 4295,
      "Ġuncertain": 4296,
      "Ġenlar": 4297,
      "Ġearthly": 4298,
      "Ġfreely": 4299,
      "Ġautom": 4300,
      "Ġdecisive": 4301,
      "Ġtree": 4302,
      "owed": 4303,
      "Ġ25": 4304,
      "Ġcarried": 4305,
      "eral": 4306,
      "oration": 4307,
      "amananda": 4308,
      "look": 4309,
      "medi": 4310,
      "cil": 4311,
      "Ġdistinct": 4312,
      "pers": 4313,
      "happ": 4314,
      "Ġleap": 4315,
      "standing": 4316,
      "position": 4317,
      "Ġprotect": 4318,
      "ĠTranslations": 4319,
      "Ġinfinity": 4320,
      "Ġstuff": 4321,
      "ONT": 4322,
      "Life": 4323,
      "Why": 4324,
      "ĠSavitri": 4325,
      "Ġvan": 4326,
      "fered": 4327,
      "Ġconsent": 4328,
      "disc": 4329,
      "Ġrevelatory": 4330,
      "36": 4331,
      "che": 4332,
      "yet": 4333,
      "ÅŁ": 4334,
      "Ġmaj": 4335,
      "Ġcosmos": 4336,
      "Ġprose": 4337,
      "prehen": 4338,
      "akespe": 4339,
      "princi": 4340,
      "Ġpotential": 4341,
      "Truth": 4342,
      "ask": 4343,
      "Ġloc": 4344,
      "Ġunreal": 4345,
      "Ġpoems": 4346,
      "Ġ27": 4347,
      "Ġbelief": 4348,
      "Ġfoot": 4349,
      "ĠVedantic": 4350,
      "Per": 4351,
      "RS": 4352,
      "Thy": 4353,
      "Ġcoun": 4354,
      "Ġnative": 4355,
      "Ġhealth": 4356,
      "Ġrises": 4357,
      "lessness": 4358,
      "Ġattachment": 4359,
      "Ġheights": 4360,
      "Ġsettled": 4361,
      "chidananda": 4362,
      "ience": 4363,
      "Ġtreat": 4364,
      "Ġlust": 4365,
      "ĠYet": 4366,
      "Ġpride": 4367,
      "ENE": 4368,
      "Ġmeeting": 4369,
      "Ġcurrent": 4370,
      "Ġseize": 4371,
      "Ġpredomin": 4372,
      "NT": 4373,
      "law": 4374,
      "two": 4375,
      "ds": 4376,
      "gram": 4377,
      "oper": 4378,
      "rate": 4379,
      "Ġstages": 4380,
      "Ġideals": 4381,
      "India": 4382,
      "ux": 4383,
      "Ġmix": 4384,
      "Ġconcern": 4385,
      "Ġjustice": 4386,
      "clusive": 4387,
      "something": 4388,
      "ksh": 4389,
      "might": 4390,
      "Ġfan": 4391,
      "Ġfresh": 4392,
      "Ġrender": 4393,
      "Ġarise": 4394,
      "higher": 4395,
      "Ġwild": 4396,
      "ĠMany": 4397,
      "Ġriches": 4398,
      "Ġfault": 4399,
      "clude": 4400,
      "Ġ29": 4401,
      "Ġdeveloping": 4402,
      "Ġassum": 4403,
      "swe": 4404,
      "Ãī": 4405,
      "ulation": 4406,
      "Ġimpulses": 4407,
      "Ġgnosis": 4408,
      "00": 4409,
      "true": 4410,
      "towards": 4411,
      "Ġlaid": 4412,
      "oday": 4413,
      "ĠPE": 4414,
      "Ġpassages": 4415,
      "Ananda": 4416,
      "Ġcombination": 4417,
      "Ġformula": 4418,
      "natural": 4419,
      "Ġsix": 4420,
      "Ġwider": 4421,
      "Ġna": 4422,
      "Ġstable": 4423,
      "iliar": 4424,
      "ĠDes": 4425,
      "Ġpeculiar": 4426,
      "bles": 4427,
      "Ġcommunity": 4428,
      "Ġsky": 4429,
      "Ġsanction": 4430,
      "necessary": 4431,
      "pare": 4432,
      "Ġben": 4433,
      "Ġcold": 4434,
      "ulture": 4435,
      "Ġtriple": 4436,
      "Ġevolutionary": 4437,
      "Ġreactions": 4438,
      "Ġimpression": 4439,
      "Now": 4440,
      "anic": 4441,
      "ĠGh": 4442,
      "Ġpoor": 4443,
      "Ġmatters": 4444,
      "Ġtries": 4445,
      "Ġhappens": 4446,
      "Ġrevelation": 4447,
      "Ġrelease": 4448,
      "Ġrapture": 4449,
      "Ġchariot": 4450,
      "kasha": 4451,
      "itative": 4452,
      "asm": 4453,
      "Ġsus": 4454,
      "ATA": 4455,
      "Ġunivers": 4456,
      "Ġteaching": 4457,
      "Ġrapidly": 4458,
      "Ġfamily": 4459,
      "Ġdetails": 4460,
      "ĠAvatar": 4461,
      "akespeare": 4462,
      "HA": 4463,
      "rew": 4464,
      "Ġmiddle": 4465,
      "Ġcat": 4466,
      "acts": 4467,
      "Ġsuffer": 4468,
      "Ġbelongs": 4469,
      "Ġfrequent": 4470,
      "Ġpermanent": 4471,
      "Ġstead": 4472,
      "Ġyield": 4473,
      "ĠFrom": 4474,
      "Ġrevolution": 4475,
      "Ġrevolt": 4476,
      "ishwarya": 4477,
      "Will": 4478,
      "Ġmill": 4479,
      "Ġham": 4480,
      "Ġunited": 4481,
      "off": 4482,
      "Ġrising": 4483,
      "ĠRam": 4484,
      "super": 4485,
      "Ġabsence": 4486,
      "ĠSub": 4487,
      "Ġdominant": 4488,
      "about": 4489,
      "ables": 4490,
      "forces": 4491,
      "Ġdivided": 4492,
      "da": 4493,
      "hus": 4494,
      "sacrifice": 4495,
      "erable": 4496,
      "Ġhop": 4497,
      "ijnana": 4498,
      "Ġeternity": 4499,
      "ĠPowers": 4500,
      "Ġintimate": 4501,
      "ĠDev": 4502,
      "Ġargu": 4503,
      "exts": 4504,
      "Ġspoke": 4505,
      "Ġcontinuous": 4506,
      "Ġmistake": 4507,
      "icable": 4508,
      "Ġstop": 4509,
      "cip": 4510,
      "Ġexper": 4511,
      "Ġquestions": 4512,
      "feel": 4513,
      "ĠATA": 4514,
      "ĠSwadeshi": 4515,
      "Ġproceeds": 4516,
      "ĠScene": 4517,
      "osen": 4518,
      "ĠWith": 4519,
      "Ġputs": 4520,
      "Ġobstacle": 4521,
      "ini": 4522,
      "whole": 4523,
      "Ġarrangement": 4524,
      "Ġbalance": 4525,
      "find": 4526,
      "Ġinconscient": 4527,
      "Ġconfused": 4528,
      "Ġconsiderable": 4529,
      "Ġscientific": 4530,
      "47": 4531,
      "Ġsought": 4532,
      "Ġinherent": 4533,
      "ifting": 4534,
      "ching": 4535,
      "Ġexcess": 4536,
      "idea": 4537,
      "Ġslowly": 4538,
      "].": 4539,
      "powers": 4540,
      "Ġcop": 4541,
      "icate": 4542,
      "Ġland": 4543,
      "Ġexer": 4544,
      "ĠNight": 4545,
      "Ġenc": 4546,
      "Ġpost": 4547,
      "Ġdiscovered": 4548,
      "Ġdiscovery": 4549,
      "Ġprimary": 4550,
      "cence": 4551,
      "estern": 4552,
      "Ġhar": 4553,
      "Ġascetic": 4554,
      "mend": 4555,
      "Ġleader": 4556,
      "Ġveiled": 4557,
      "Ġconcrete": 4558,
      "Ġauthor": 4559,
      "Nor": 4560,
      "ham": 4561,
      "ones": 4562,
      "Ġpu": 4563,
      "etic": 4564,
      "ĠMore": 4565,
      "ĠMitra": 4566,
      "ĠGA": 4567,
      "Ġtends": 4568,
      "Ġprevail": 4569,
      "Ġoblig": 4570,
      "rt": 4571,
      "Ġthroughout": 4572,
      "Ġguidance": 4573,
      "ĠArt": 4574,
      "Ġbuilt": 4575,
      "Ġomnip": 4576,
      "mi": 4577,
      "áº": 4578,
      "antage": 4579,
      "apna": 4580,
      "abs": 4581,
      "ibly": 4582,
      "ublished": 4583,
      "Ġvoid": 4584,
      "Ġfirmly": 4585,
      "ĠOthers": 4586,
      "Ġscale": 4587,
      "Ġpossessed": 4588,
      "Ġsymbols": 4589,
      "Ġexplan": 4590,
      "Ġattained": 4591,
      "Ġobstruction": 4592,
      "Ġthousand": 4593,
      "Ġattend": 4594,
      "Ġworked": 4595,
      "Ġmagn": 4596,
      "Ġpreparation": 4597,
      "ĠSpe": 4598,
      "Äģt": 4599,
      "should": 4600,
      "Ġ26": 4601,
      "within": 4602,
      "upa": 4603,
      ".)": 4604,
      "Ġease": 4605,
      "such": 4606,
      "Ġopens": 4607,
      "ĠBuddh": 4608,
      "Se": 4609,
      "ator": 4610,
      "ĠTHE": 4611,
      "rove": 4612,
      "Ġcompar": 4613,
      "ien": 4614,
      "anta": 4615,
      "Ġreasoning": 4616,
      "normal": 4617,
      "OT": 4618,
      "grow": 4619,
      "isions": 4620,
      "Ġfur": 4621,
      "Ġaside": 4622,
      "Ġtrust": 4623,
      "Ġ30": 4624,
      "Ġfailed": 4625,
      "arasw": 4626,
      "effective": 4627,
      "Mind": 4628,
      "bits": 4629,
      "isha": 4630,
      "Ġunknown": 4631,
      "ĠANT": 4632,
      "oubled": 4633,
      "Ġdevotion": 4634,
      "Ġmultipl": 4635,
      "Your": 4636,
      "Ġloss": 4637,
      "Ġenters": 4638,
      "Ġspoken": 4639,
      "Ġlogic": 4640,
      ".,": 4641,
      "23": 4642,
      "Com": 4643,
      "SU": 4644,
      "Ġwomen": 4645,
      "Ġdull": 4646,
      "Ġstrongly": 4647,
      "Ġtendencies": 4648,
      "Ġdestru": 4649,
      "Ġintim": 4650,
      "ĠOA": 4651,
      "Ġchatust": 4652,
      "ground": 4653,
      "perfection": 4654,
      "Ġincap": 4655,
      "ĠRishi": 4656,
      "Ġstudy": 4657,
      "Do": 4658,
      "much": 4659,
      "wic": 4660,
      "ĠgA": 4661,
      "Ġ11": 4662,
      "Ġusual": 4663,
      "Äģm": 4664,
      "suc": 4665,
      "Ġcalls": 4666,
      "Here": 4667,
      "Ġcontinue": 4668,
      "Ġdaily": 4669,
      "strong": 4670,
      ")âĢĶ": 4671,
      "Aurobindo": 4672,
      "Ġwitness": 4673,
      "Ġclim": 4674,
      "Ġedition": 4675,
      "Ġfelicity": 4676,
      "Ġpopular": 4677,
      "car": 4678,
      "Ġhy": 4679,
      "ĠMAN": 4680,
      "ĠThus": 4681,
      "Ġcontem": 4682,
      "Ġadminist": 4683,
      "Ġquick": 4684,
      "means": 4685,
      "upon": 4686,
      "Only": 4687,
      "Ġ189": 4688,
      "energy": 4689,
      "Ġlooked": 4690,
      "Ġtamasic": 4691,
      "rut": 4692,
      "state": 4693,
      "ĠPl": 4694,
      "rible": 4695,
      "Ġshown": 4696,
      "Ġpriv": 4697,
      "Ġquar": 4698,
      "Ġkeeps": 4699,
      "Ġaccur": 4700,
      "ebook": 4701,
      "Ġrepeated": 4702,
      "Ġrules": 4703,
      "irvana": 4704,
      "count": 4705,
      "Ġbeat": 4706,
      "ĠMar": 4707,
      "ouring": 4708,
      "Ġknowing": 4709,
      "oked": 4710,
      "Ġtriumph": 4711,
      "Ġlargely": 4712,
      "Ġgovernment": 4713,
      "Ġbondage": 4714,
      "21": 4715,
      "giving": 4716,
      "made": 4717,
      "nings": 4718,
      "Ġlover": 4719,
      "ĠMor": 4720,
      "oft": 4721,
      "occup": 4722,
      "Ġeconomic": 4723,
      "iciency": 4724,
      "Ġduty": 4725,
      "ĠGhose": 4726,
      "ai": 4727,
      "Ġtim": 4728,
      "anes": 4729,
      "oms": 4730,
      "Ġsearch": 4731,
      "Ġrays": 4732,
      "Ġearlier": 4733,
      "ĠNationalist": 4734,
      "Ġtitle": 4735,
      "Ġmur": 4736,
      "Ġhuge": 4737,
      "Ġpoints": 4738,
      "Ġthrown": 4739,
      "RT": 4740,
      "cosmic": 4741,
      "fig": 4742,
      "Ä¾": 4743,
      "atin": 4744,
      "Ġmarch": 4745,
      "Ġmoney": 4746,
      "oted": 4747,
      "Ġproof": 4748,
      "Ġ28": 4749,
      "sive": 4750,
      "urbed": 4751,
      "Ġsust": 4752,
      "Ġperv": 4753,
      "too": 4754,
      "error": 4755,
      "Ġembrace": 4756,
      "Ġdenial": 4757,
      "ĠAngir": 4758,
      "Ġtongue": 4759,
      "araswati": 4760,
      "Ġmad": 4761,
      "Ġpun": 4762,
      "idity": 4763,
      "Ġstar": 4764,
      "Ġexagger": 4765,
      "antic": 4766,
      "Ġje": 4767,
      "cles": 4768,
      "Ġthinks": 4769,
      "Ġdrawn": 4770,
      "Ġrejection": 4771,
      "equal": 4772,
      "iter": 4773,
      "Ġstay": 4774,
      "ĠMN": 4775,
      "Ġleaves": 4776,
      "Ġrelative": 4777,
      "Ġacceptance": 4778,
      "Ġrejected": 4779,
      "Ġsympathy": 4780,
      "sl": 4781,
      "Ġbind": 4782,
      "ST": 4783,
      "aly": 4784,
      "Ġmedi": 4785,
      "asant": 4786,
      "Ġconclusion": 4787,
      "mentary": 4788,
      "ĠColl": 4789,
      "Ġshut": 4790,
      "therefore": 4791,
      "object": 4792,
      "Ġtaste": 4793,
      "adv": 4794,
      "ĠSamadhi": 4795,
      "Ġperfected": 4796,
      "Ġ23": 4797,
      "raddha": 4798,
      "Ġrevised": 4799,
      "opp": 4800,
      "owing": 4801,
      "ĠGu": 4802,
      "oka": 4803,
      "Ġcreature": 4804,
      "Ġ1937": 4805,
      "Ġsigns": 4806,
      "ĠUnity": 4807,
      "Ġritam": 4808,
      "ira": 4809,
      "pered": 4810,
      "Ġspirituality": 4811,
      "mean": 4812,
      "ĠWork": 4813,
      "Ġjudgment": 4814,
      "Ġterrestrial": 4815,
      "manifestation": 4816,
      "inc": 4817,
      "eshav": 4818,
      "Ġpage": 4819,
      "become": 4820,
      "Ġsubt": 4821,
      "fulness": 4822,
      "Ġtried": 4823,
      "Ġlarg": 4824,
      "Ġphenomenal": 4825,
      "Ġwaves": 4826,
      "Ġavoid": 4827,
      "Ġadmitted": 4828,
      "isations": 4829,
      "asing": 4830,
      "ĠMAT": 4831,
      "unas": 4832,
      "active": 4833,
      "ernal": 4834,
      "Ġkey": 4835,
      "Ġforest": 4836,
      "ĠNotes": 4837,
      "Ġrecognise": 4838,
      "orough": 4839,
      "Ġjustified": 4840,
      "Ġpersist": 4841,
      "Ġmystery": 4842,
      "Ġfriends": 4843,
      "Ġlevels": 4844,
      "Ġsplendour": 4845,
      "bes": 4846,
      "med": 4847,
      "itors": 4848,
      "igion": 4849,
      "Ġstood": 4850,
      "Ġspeaks": 4851,
      "progress": 4852,
      "obs": 4853,
      "Ġdefects": 4854,
      "interest": 4855,
      "intellectual": 4856,
      "Ġiniti": 4857,
      "Ġkarma": 4858,
      "Ġimmutable": 4859,
      "Ġassimil": 4860,
      "Ġstanding": 4861,
      "Ġcontinued": 4862,
      "Ġdestiny": 4863,
      "harata": 4864,
      "Ġconcentrated": 4865,
      "Ġho": 4866,
      "utes": 4867,
      "Ġstren": 4868,
      "Ġalien": 4869,
      "idered": 4870,
      "Ġentered": 4871,
      "Ġprevious": 4872,
      "Ġliterary": 4873,
      "Pur": 4874,
      "apt": 4875,
      "nation": 4876,
      "tions": 4877,
      "ĠRaj": 4878,
      "Ġusing": 4879,
      "Ġcarries": 4880,
      "HI": 4881,
      "down": 4882,
      "raction": 4883,
      "Ġdepression": 4884,
      "ĠGer": 4885,
      "ARI": 4886,
      "ĠShakespeare": 4887,
      "Ġexplain": 4888,
      "give": 4889,
      "ifts": 4890,
      "aming": 4891,
      "ilence": 4892,
      "result": 4893,
      "rikaldrishti": 4894,
      "Ġdescription": 4895,
      "atience": 4896,
      "Ġepic": 4897,
      "Ġprecisely": 4898,
      "ded": 4899,
      "inent": 4900,
      "Ġsong": 4901,
      "Ġfilled": 4902,
      "ĠAK": 4903,
      "ĠHig": 4904,
      "Ġjag": 4905,
      "Ġadverse": 4906,
      "Ġthinker": 4907,
      "Ġputting": 4908,
      "Ġaccomplished": 4909,
      "atives": 4910,
      "Ġportion": 4911,
      "Ġstars": 4912,
      "Ġhabits": 4913,
      "achchidananda": 4914,
      "Ġslave": 4915,
      "Ġdeny": 4916,
      "ties": 4917,
      "take": 4918,
      "Ġcross": 4919,
      "ĠSuch": 4920,
      "Ġstone": 4921,
      "Ġexpresses": 4922,
      "Ġprogressive": 4923,
      "ĠChit": 4924,
      "Ġsignificant": 4925,
      "Ġbusiness": 4926,
      "LA": 4927,
      "OP": 4928,
      "done": 4929,
      "rec": 4930,
      "Ġpit": 4931,
      "ĠSI": 4932,
      "ulsion": 4933,
      "before": 4934,
      "Ġemotions": 4935,
      "Ġopposed": 4936,
      "ashion": 4937,
      "Ġincreased": 4938,
      "Ġcircumstance": 4939,
      "Ġapparently": 4940,
      "sm": 4941,
      "Ġri": 4942,
      "urd": 4943,
      "Ġcompan": 4944,
      "ĠEA": 4945,
      "Ġagree": 4946,
      "Ġquant": 4947,
      "Ġconsidered": 4948,
      "Ġbooks": 4949,
      "Ġseized": 4950,
      "DI": 4951,
      "bre": 4952,
      "bing": 4953,
      "fact": 4954,
      "Ġharm": 4955,
      "ctr": 4956,
      "ĠSayana": 4957,
      "Ġanger": 4958,
      "those": 4959,
      "aged": 4960,
      "ART": 4961,
      "armony": 4962,
      "Ġreading": 4963,
      "Ġrecognised": 4964,
      "UTTA": 4965,
      "ps": 4966,
      "possible": 4967,
      "Ġhun": 4968,
      "Ġdog": 4969,
      "idya": 4970,
      "play": 4971,
      "Ġempire": 4972,
      "Ġpurified": 4973,
      "ĠAIA": 4974,
      "Ġvoices": 4975,
      "ankara": 4976,
      "Ġ1909": 4977,
      "Ġstrain": 4978,
      "OC": 4979,
      "rong": 4980,
      "Ġgain": 4981,
      "Ġhel": 4982,
      "ĠVa": 4983,
      "Ġsubstitut": 4984,
      "pless": 4985,
      "ĠInconscient": 4986,
      "Ġsurpr": 4987,
      "Ġsuddenly": 4988,
      "ov": 4989,
      "itality": 4990,
      "Ġeager": 4991,
      "pti": 4992,
      "abh": 4993,
      "Ġvariety": 4994,
      "Ġguide": 4995,
      "himself": 4996,
      "help": 4997,
      "Ġsons": 4998,
      "arv": 4999,
      "Ġreign": 5000,
      "Ġaspir": 5001,
      "ounced": 5002,
      "Ġhabitual": 5003,
      "ĠaR": 5004,
      "Ġbos": 5005,
      "ĠTe": 5006,
      "think": 5007,
      "ils": 5008,
      "Ġprepare": 5009,
      "Ġpsychical": 5010,
      "Ġbodily": 5011,
      "Ġpiece": 5012,
      "instru": 5013,
      "Ġlat": 5014,
      "ula": 5015,
      "Ġshalt": 5016,
      "Ġevening": 5017,
      "Ġflood": 5018,
      "ĠARS": 5019,
      "Ġregular": 5020,
      "anny": 5021,
      "Ġgnostic": 5022,
      "Ġburning": 5023,
      "Ġfierce": 5024,
      "lame": 5025,
      "Ġcy": 5026,
      "Ġdual": 5027,
      "Ġdie": 5028,
      "ĠAEA": 5029,
      "ĠCirca": 5030,
      "ĠDh": 5031,
      "orts": 5032,
      "Ġawake": 5033,
      "Ġpaths": 5034,
      "Ġregarded": 5035,
      "Ġoccasional": 5036,
      "Self": 5037,
      "ivered": 5038,
      "ĠEarth": 5039,
      "ression": 5040,
      "Ġillness": 5041,
      "Ġextended": 5042,
      "hend": 5043,
      "itably": 5044,
      "Ġpages": 5045,
      "Ġlack": 5046,
      "dered": 5047,
      "Ġovermind": 5048,
      "Ġends": 5049,
      "Ġabsolutely": 5050,
      "Ġexistences": 5051,
      "Ġroots": 5052,
      "Ġpieces": 5053,
      "Keshav": 5054,
      "LE": 5055,
      "Ġ1910": 5056,
      "Ġfourth": 5057,
      "Ġrapidity": 5058,
      "Ġwait": 5059,
      "Ġ1927": 5060,
      "Ġmotives": 5061,
      "Ġutterly": 5062,
      "ĠIdeal": 5063,
      "Su": 5064,
      "ego": 5065,
      "Ġtalk": 5066,
      "ĠSa": 5067,
      "ĠMAA": 5068,
      "iling": 5069,
      "using": 5070,
      "Ġshar": 5071,
      "Ġinspir": 5072,
      "Ġsensation": 5073,
      "Ġutility": 5074,
      "ifference": 5075,
      "cerity": 5076,
      "ret": 5077,
      "Ġnotebook": 5078,
      "Ġdefin": 5079,
      "ĠEm": 5080,
      "ansion": 5081,
      "Ġupl": 5082,
      "udra": 5083,
      "ificial": 5084,
      "Ġinsistence": 5085,
      "ĠAIT": 5086,
      "Ġjudge": 5087,
      "Ġsattwic": 5088,
      "Spirit": 5089,
      "ĠFour": 5090,
      "Ġprolong": 5091,
      "Ġactually": 5092,
      "Ġamb": 5093,
      "Ġopport": 5094,
      "mo": 5095,
      "ref": 5096,
      "ĠFirst": 5097,
      "Ġgoddess": 5098,
      "Ġappeal": 5099,
      "Äģnanda": 5100,
      "Ġtelepathy": 5101,
      "stantial": 5102,
      "ishnu": 5103,
      "itate": 5104,
      "cell": 5105,
      "Ġplain": 5106,
      "bered": 5107,
      "Ġstrife": 5108,
      "Ġsupposed": 5109,
      "Ġgenerally": 5110,
      "development": 5111,
      "Some": 5112,
      "Ġz": 5113,
      "ĠMAI": 5114,
      "Ġworth": 5115,
      "Ġshr": 5116,
      "Ġplen": 5117,
      "ĠKalidasa": 5118,
      "ternational": 5119,
      "Ġages": 5120,
      "Ġcompleteness": 5121,
      "Ġsave": 5122,
      "Ġsupports": 5123,
      "ourable": 5124,
      "appo": 5125,
      "Ġdisturbance": 5126,
      "Ġembodied": 5127,
      "PI": 5128,
      "uition": 5129,
      "Ġast": 5130,
      "Ġdict": 5131,
      "Ġdefe": 5132,
      "Ġdoor": 5133,
      "ceptive": 5134,
      "Ġsatisfy": 5135,
      "ĠaAa": 5136,
      "Ġbureaucracy": 5137,
      "Lipi": 5138,
      "inery": 5139,
      "run": 5140,
      "Ġimposed": 5141,
      "Ġrain": 5142,
      "Ġspeed": 5143,
      "Consciousness": 5144,
      "Ġexplanation": 5145,
      "37": 5146,
      "ina": 5147,
      "reality": 5148,
      "Ġcity": 5149,
      "ĠSir": 5150,
      "Ġdear": 5151,
      "riti": 5152,
      "Ġclar": 5153,
      "Ġhappened": 5154,
      "Ġgoverned": 5155,
      "Ġrenunciation": 5156,
      "Ġrajasic": 5157,
      "KTA": 5158,
      "co": 5159,
      "rous": 5160,
      "Â®": 5161,
      "erge": 5162,
      "Ġwand": 5163,
      "ĠWhy": 5164,
      "Ġstronger": 5165,
      "Ġassured": 5166,
      "Ġdrive": 5167,
      "Ġconquest": 5168,
      "Ġcareful": 5169,
      "Ġsubliminal": 5170,
      "38": 5171,
      "psychic": 5172,
      "Ġoffered": 5173,
      "Ġcul": 5174,
      "ĠAAN": 5175,
      "Ġnotes": 5176,
      "Ġraise": 5177,
      "Ġtransition": 5178,
      "Ġeffects": 5179,
      "Ġreplace": 5180,
      "Ġfamiliar": 5181,
      "Ġbhakti": 5182,
      "Ġpenet": 5183,
      "Mah": 5184,
      "determ": 5185,
      "Ġsides": 5186,
      "ica": 5187,
      "uries": 5188,
      "scient": 5189,
      "ĠWest": 5190,
      "Ġflowers": 5191,
      "Ġassert": 5192,
      "ĠPRN": 5193,
      "Ġinfluences": 5194,
      "Ġconnected": 5195,
      "ĠPresence": 5196,
      "olitical": 5197,
      "ege": 5198,
      "Ġscript": 5199,
      "esh": 5200,
      "Ġmine": 5201,
      "antly": 5202,
      "Ġchosen": 5203,
      "olutions": 5204,
      "ĠSupramental": 5205,
      "Ġstarting": 5206,
      "Ġreplaced": 5207,
      "Ġachieved": 5208,
      "Ġperceive": 5209,
      "Ġenemy": 5210,
      "Ġlie": 5211,
      "ĠAM": 5212,
      "universal": 5213,
      "others": 5214,
      "Ġpurification": 5215,
      "Ġextra": 5216,
      "Ġstandard": 5217,
      "Ġbreaking": 5218,
      "Ġsupported": 5219,
      "Ġsymbolic": 5220,
      "Ġdependent": 5221,
      "possess": 5222,
      "Ġsplendid": 5223,
      "Ġcollective": 5224,
      "matic": 5225,
      "athe": 5226,
      "Ġincomplete": 5227,
      "anqu": 5228,
      "Ġdread": 5229,
      "ĠRO": 5230,
      "ĠDA": 5231,
      "Ġsyll": 5232,
      "Ġobserve": 5233,
      "subject": 5234,
      "THE": 5235,
      "ĠSanscrit": 5236,
      "Ġyesterday": 5237,
      "ERI": 5238,
      "orig": 5239,
      "inging": 5240,
      "Ġyouth": 5241,
      "Ġnearer": 5242,
      "Ġinterven": 5243,
      "ilosophy": 5244,
      "Ġgaze": 5245,
      "Ġobvious": 5246,
      "Ġarticles": 5247,
      "ishable": 5248,
      "SUKTA": 5249,
      "49": 5250,
      "Trans": 5251,
      "bal": 5252,
      "Ġgar": 5253,
      "ĠART": 5254,
      "Ġshare": 5255,
      "Ġhurt": 5256,
      "40": 5257,
      "jud": 5258,
      "make": 5259,
      "personal": 5260,
      "Ġgained": 5261,
      "agore": 5262,
      "Ġado": 5263,
      "Ġreply": 5264,
      "Ġemergence": 5265,
      "fall": 5266,
      "resist": 5267,
      "ustomed": 5268,
      "ograph": 5269,
      "Ġpros": 5270,
      "Ġabund": 5271,
      "anging": 5272,
      "Ġremem": 5273,
      "Ġ1908": 5274,
      "regard": 5275,
      "Ġoperations": 5276,
      "riya": 5277,
      "hait": 5278,
      "orted": 5279,
      "Ġcentury": 5280,
      "Ġ1913": 5281,
      "Ġcauses": 5282,
      "movements": 5283,
      "Ġimperative": 5284,
      "Ġether": 5285,
      "Ġformations": 5286,
      "Ġevents": 5287,
      "Ġfalls": 5288,
      "ĠPoems": 5289,
      "import": 5290,
      "Samadhi": 5291,
      "master": 5292,
      "rs": 5293,
      "Ãį": 5294,
      "illing": 5295,
      "Ġspecul": 5296,
      "uka": 5297,
      "Ġconsequence": 5298,
      "Out": 5299,
      "free": 5300,
      "last": 5301,
      "mis": 5302,
      "Ġwhe": 5303,
      "fection": 5304,
      "ignific": 5305,
      "Ġprefer": 5306,
      "Ġapply": 5307,
      "Ġindividuality": 5308,
      "Ġextension": 5309,
      "Ġchoose": 5310,
      "Ġassociation": 5311,
      "Ġincluded": 5312,
      "Ġreconci": 5313,
      "Af": 5314,
      "Sw": 5315,
      "hana": 5316,
      "arana": 5317,
      "Ġdeliber": 5318,
      "ĠBA": 5319,
      "ĠGreat": 5320,
      "Ġanyone": 5321,
      "Ġdevelops": 5322,
      "Ġeffected": 5323,
      "condition": 5324,
      "appear": 5325,
      "passion": 5326,
      "Ġconstitution": 5327,
      "habharata": 5328,
      "nthesis": 5329,
      "could": 5330,
      "pal": 5331,
      "edience": 5332,
      "Ġembra": 5333,
      "Ġdwelling": 5334,
      "Ġwithdraw": 5335,
      "Ġmention": 5336,
      "Ġcra": 5337,
      "Ġcows": 5338,
      "Ġthorough": 5339,
      "ĠIAT": 5340,
      "Ġperceptions": 5341,
      "ĠLatin": 5342,
      "tained": 5343,
      "pract": 5344,
      "Ġadvanced": 5345,
      "dem": 5346,
      "sens": 5347,
      "rev": 5348,
      "ĠPAT": 5349,
      "ĠCoun": 5350,
      "Ġperpet": 5351,
      "Ġuphold": 5352,
      "Ġfaa": 5353,
      "Ġprison": 5354,
      "Ġpurposes": 5355,
      "Ġstructure": 5356,
      "greater": 5357,
      "Ġprotection": 5358,
      "Ġurge": 5359,
      "Ġheavy": 5360,
      "OS": 5361,
      "Ġbare": 5362,
      "Ġineff": 5363,
      "Ġforgot": 5364,
      "Ġcharm": 5365,
      "conf": 5366,
      "Ġphil": 5367,
      "Ġuseful": 5368,
      "Ġhelps": 5369,
      "Ġscope": 5370,
      "Ġfallen": 5371,
      "Ġaims": 5372,
      "Ġtransformed": 5373,
      "Ġpersistence": 5374,
      "Ġrevealed": 5375,
      "Ġcrown": 5376,
      "Ġempty": 5377,
      "Ġsubordinate": 5378,
      "inative": 5379,
      "Ġincom": 5380,
      "Ġly": 5381,
      "ĠFA": 5382,
      "ĠVir": 5383,
      "Ġenthus": 5384,
      "themselves": 5385,
      "Ġlips": 5386,
      "Ġsolid": 5387,
      "arshana": 5388,
      "Ġobservation": 5389,
      "ĠChristian": 5390,
      "principle": 5391,
      "Ġenthusi": 5392,
      "rees": 5393,
      "Ġwal": 5394,
      "Ġphys": 5395,
      "iments": 5396,
      "Ġvitality": 5397,
      "Ġrate": 5398,
      "ĠWestern": 5399,
      "oyal": 5400,
      "Ġordinarily": 5401,
      "Ġcommer": 5402,
      "Ġreproduced": 5403,
      "success": 5404,
      "Ġbosom": 5405,
      "39": 5406,
      "Eng": 5407,
      "Part": 5408,
      "aus": 5409,
      "num": 5410,
      "ror": 5411,
      "tem": 5412,
      "ndered": 5413,
      "ushed": 5414,
      "Ġago": 5415,
      "Ġrefer": 5416,
      "Ġcentres": 5417,
      "Ġfavour": 5418,
      "Ġenvironment": 5419,
      "Ġmultiplicity": 5420,
      "Light": 5421,
      "Note": 5422,
      "ĠSE": 5423,
      "Ġdistant": 5424,
      "Ġintermedi": 5425,
      "Ġsuperconscient": 5426,
      "ysis": 5427,
      "ĠNew": 5428,
      "ĠAnglo": 5429,
      "Pr": 5430,
      "reedom": 5431,
      "sti": 5432,
      "leg": 5433,
      "etition": 5434,
      "Ġexhaust": 5435,
      "ishment": 5436,
      "Ġconquered": 5437,
      "Ġlearned": 5438,
      "Ġproduce": 5439,
      "Ġboycott": 5440,
      "fulfil": 5441,
      "qa": 5442,
      "illumin": 5443,
      "pelled": 5444,
      "ĠNirvana": 5445,
      "quir": 5446,
      "Ġspirits": 5447,
      "Ġarises": 5448,
      "Ġpron": 5449,
      "Äģva": 5450,
      "Ġ1932": 5451,
      "Ġtejas": 5452,
      "Ġrefuse": 5453,
      "ĠStates": 5454,
      "Ġmagic": 5455,
      "ĠBuddha": 5456,
      "ĠQu": 5457,
      "iber": 5458,
      "kes": 5459,
      "pres": 5460,
      "yÄģ": 5461,
      "Ġsn": 5462,
      "olve": 5463,
      "ideal": 5464,
      "Ġattention": 5465,
      "Ġsubjection": 5466,
      "Ġsincere": 5467,
      "rishn": 5468,
      "Ġimperfection": 5469,
      "rogya": 5470,
      "haituka": 5471,
      "Ġcess": 5472,
      "Ġlot": 5473,
      "Ġunseen": 5474,
      "ĠRel": 5475,
      "Ġblack": 5476,
      "Ġofficial": 5477,
      "Ġsuggested": 5478,
      "realisation": 5479,
      "Ġcriticism": 5480,
      "ormous": 5481,
      "Ab": 5482,
      "gl": 5483,
      "Ġwood": 5484,
      "Ġcr": 5485,
      "Ġcher": 5486,
      "Ġthunder": 5487,
      "Ġeight": 5488,
      "ctive": 5489,
      "beyond": 5490,
      "Ġcreator": 5491,
      "Ġwrath": 5492,
      "Ġarranged": 5493,
      "Ġconfidence": 5494,
      "Ġcircle": 5495,
      "Ġer": 5496,
      "Ġdi": 5497,
      "Ġlink": 5498,
      "ĠâĢĻ": 5499,
      "Ġpraise": 5500,
      "mitte": 5501,
      "Ġseeker": 5502,
      "Ġlimbs": 5503,
      "Ġobstacles": 5504,
      "Ġobviously": 5505,
      "Ġburden": 5506,
      "Ġdestruction": 5507,
      "taken": 5508,
      "lead": 5509,
      "inde": 5510,
      "ĠNT": 5511,
      "Ġcompl": 5512,
      "evolution": 5513,
      "Ġtouched": 5514,
      "Ġloose": 5515,
      "Ġredu": 5516,
      "Ġcompelled": 5517,
      "Ġobey": 5518,
      "VA": 5519,
      "dr": 5520,
      "either": 5521,
      "Ġwife": 5522,
      "ĠAET": 5523,
      "ĠIll": 5524,
      "theless": 5525,
      "ĠRig": 5526,
      "ĠGuru": 5527,
      "Ġplaces": 5528,
      "Into": 5529,
      "Ġfunctions": 5530,
      "Ġachievement": 5531,
      "Brahman": 5532,
      "bound": 5533,
      "each": 5534,
      "rant": 5535,
      "Ġspar": 5536,
      "Ġplenty": 5537,
      "Ġindust": 5538,
      "Ġblue": 5539,
      "Ġadvantage": 5540,
      "Ġcapt": 5541,
      "Ġ1920": 5542,
      "Ġphilosophical": 5543,
      "good": 5544,
      "held": 5545,
      "Ġpal": 5546,
      "Ġpict": 5547,
      "Ġge": 5548,
      "ĠON": 5549,
      "quate": 5550,
      "Ġeng": 5551,
      "ĠKali": 5552,
      "ĠANI": 5553,
      "Ġsatyam": 5554,
      "Ġutthapana": 5555,
      "Ġgreen": 5556,
      "Ġapplication": 5557,
      "Ġawakening": 5558,
      "Like": 5559,
      "rative": 5560,
      "Ġsoft": 5561,
      "Ġhoney": 5562,
      "ilson": 5563,
      "people": 5564,
      "ĠCosmic": 5565,
      "Ġpoise": 5566,
      "Ġraised": 5567,
      "ounce": 5568,
      "ETE": 5569,
      "Ġhelpful": 5570,
      "ENT": 5571,
      "Ġterrible": 5572,
      "48": 5573,
      "bu": 5574,
      "ength": 5575,
      "Ġbra": 5576,
      "Ġbuddhi": 5577,
      "Ġisol": 5578,
      "Ġtrance": 5579,
      "Ġtroubled": 5580,
      "Ġgrew": 5581,
      "Ġdharma": 5582,
      "Bande": 5583,
      "Äı": 5584,
      "Ġaat": 5585,
      "Ġsidd": 5586,
      "Ġspread": 5587,
      "Ġfashion": 5588,
      "edge": 5589,
      "ĠAp": 5590,
      "Ġaspire": 5591,
      "aded": 5592,
      "Ġstorm": 5593,
      "aga": 5594,
      "above": 5595,
      "Ġrespond": 5596,
      "Ġpasses": 5597,
      "Ġremoved": 5598,
      "ictions": 5599,
      "ĠAsia": 5600,
      "Ġcharge": 5601,
      "Ġsaying": 5602,
      "Ġopened": 5603,
      "desire": 5604,
      "Ġbarbar": 5605,
      "Ġmutual": 5606,
      "character": 5607,
      "ĠMoreover": 5608,
      "RN": 5609,
      "Section": 5610,
      "ZA": 5611,
      "sions": 5612,
      "siddhi": 5613,
      "inally": 5614,
      "Ġstamp": 5615,
      "hapters": 5616,
      "Ġjustification": 5617,
      "orses": 5618,
      "Ġincreases": 5619,
      "Ġpaper": 5620,
      "ĠIntegral": 5621,
      "45": 5622,
      "rid": 5623,
      "arian": 5624,
      "strength": 5625,
      "Ġgunas": 5626,
      "tha": 5627,
      "road": 5628,
      "becomes": 5629,
      "Ġdesirable": 5630,
      "Ġobjection": 5631,
      "ĠWorks": 5632,
      "Ġid": 5633,
      "Ġwin": 5634,
      "ayas": 5635,
      "ĠPRA": 5636,
      "ĠFlame": 5637,
      "nothing": 5638,
      "supreme": 5639,
      "Ġartistic": 5640,
      "Ġartificial": 5641,
      "Ġlesser": 5642,
      "Therefore": 5643,
      "Ġ1912": 5644,
      "May": 5645,
      "follow": 5646,
      "Ġbold": 5647,
      "oral": 5648,
      "blems": 5649,
      "ĠEast": 5650,
      "Ġreasons": 5651,
      "Ġglorious": 5652,
      "Ġremained": 5653,
      "process": 5654,
      "Ġdivin": 5655,
      "Ġtempor": 5656,
      "Ġattempts": 5657,
      "ĠNationalism": 5658,
      "Ġdealing": 5659,
      "Ġnegative": 5660,
      "vasie": 5661,
      "lower": 5662,
      "herence": 5663,
      "Ġsad": 5664,
      "ĠSachchidananda": 5665,
      "Ġexception": 5666,
      "ternoon": 5667,
      "mere": 5668,
      "Ġevolved": 5669,
      "Ġvijn": 5670,
      "works": 5671,
      "Ġelsewhere": 5672,
      "ĠStill": 5673,
      "Ġmyster": 5674,
      "Ġfragment": 5675,
      "tthapana": 5676,
      "inces": 5677,
      "Ġwings": 5678,
      "Ġweight": 5679,
      "Ġcomprehen": 5680,
      "ĠHell": 5681,
      "ĠET": 5682,
      "ĠEvery": 5683,
      "Ġsubconscious": 5684,
      "Ġspeaking": 5685,
      "Ġjustify": 5686,
      "Ġappeared": 5687,
      "ukti": 5688,
      "Ġeventually": 5689,
      "Ġcessation": 5690,
      "dent": 5691,
      "ease": 5692,
      "ih": 5693,
      "Ġwon": 5694,
      "otent": 5695,
      "Ġann": 5696,
      "Ġchann": 5697,
      "Ġknower": 5698,
      "Ġplant": 5699,
      "Ġsubsequ": 5700,
      "Ġimpose": 5701,
      "creation": 5702,
      "Ġmanifesting": 5703,
      "Ġsche": 5704,
      "Ġlooking": 5705,
      "Ġsecondary": 5706,
      "Ġerrors": 5707,
      "Ġdetermine": 5708,
      "Ġadded": 5709,
      "ĠMyst": 5710,
      "Ġhills": 5711,
      "Wilson": 5712,
      "cor": 5713,
      "rational": 5714,
      "Ġowing": 5715,
      "Ġfif": 5716,
      "Ġthine": 5717,
      "ĠIAA": 5718,
      "ĠIEA": 5719,
      "Ġuns": 5720,
      "Ġunconscious": 5721,
      "need": 5722,
      "Ġdriven": 5723,
      "Ġmonth": 5724,
      "Ġminutes": 5725,
      "Ġindicated": 5726,
      "Ġdwells": 5727,
      "airs": 5728,
      "Ġwo": 5729,
      "akali": 5730,
      "mentaries": 5731,
      "Ġdeb": 5732,
      "ĠCulture": 5733,
      "Ġtruly": 5734,
      "ĠBrahm": 5735,
      "Ġstandpoint": 5736,
      "uddha": 5737,
      "Ġreveal": 5738,
      "Ġpatriot": 5739,
      "ĠMorley": 5740,
      "gments": 5741,
      "pen": 5742,
      "enes": 5743,
      "Ġrivers": 5744,
      "ĠEn": 5745,
      "ĠWhere": 5746,
      "expl": 5747,
      "ĠAAI": 5748,
      "ĠReal": 5749,
      "Ġsmile": 5750,
      "Ġreflect": 5751,
      "Ġsounds": 5752,
      "Ġimperial": 5753,
      "Ġtotality": 5754,
      "Ġmachinery": 5755,
      "Ġwave": 5756,
      "ĠThy": 5757,
      "ĠSN": 5758,
      "Ġseers": 5759,
      "Ġstir": 5760,
      "conce": 5761,
      "Ġarbit": 5762,
      "abhava": 5763,
      "Ġimpart": 5764,
      "Ġindividuals": 5765,
      "Ġpolice": 5766,
      "pair": 5767,
      "Ġdivinity": 5768,
      "Ġsupporting": 5769,
      "Ġappearances": 5770,
      "Ġquietude": 5771,
      "ĠSwaraj": 5772,
      "Ġcorrespondent": 5773,
      "ĠTranscend": 5774,
      "ranath": 5775,
      "GI": 5776,
      "Im": 5777,
      "delight": 5778,
      "inv": 5779,
      "incre": 5780,
      "Ġfast": 5781,
      "ĠANE": 5782,
      "Ġarrived": 5783,
      "Ġritual": 5784,
      "fulfilment": 5785,
      "Love": 5786,
      "Power": 5787,
      "matter": 5788,
      "Ġinsufficient": 5789,
      "ĠAU": 5790,
      "Ġperil": 5791,
      "behind": 5792,
      "ervation": 5793,
      "Ġcruel": 5794,
      "Ġminor": 5795,
      "ĠWho": 5796,
      "ĠPeace": 5797,
      "Ġsalvation": 5798,
      "mittee": 5799,
      "OI": 5800,
      "Ġgri": 5801,
      "ode": 5802,
      "pressed": 5803,
      "claim": 5804,
      "Ġaccepts": 5805,
      "ĠUniverse": 5806,
      "Ġreceives": 5807,
      "Ġceases": 5808,
      "Ġbenef": 5809,
      "Are": 5810,
      "ancing": 5811,
      "ouch": 5812,
      "ĠSRI": 5813,
      "accept": 5814,
      "emb": 5815,
      "Ġdiscord": 5816,
      "sugg": 5817,
      "lessly": 5818,
      "Ġrestr": 5819,
      "ĠBrahma": 5820,
      "Ġexisting": 5821,
      "Ġawareness": 5822,
      "Ġperiods": 5823,
      "ĠChandra": 5824,
      "SI": 5825,
      "Wor": 5826,
      "ait": 5827,
      "ji": 5828,
      "Ġpull": 5829,
      "sec": 5830,
      "Ġforced": 5831,
      "ilak": 5832,
      "Ġdoors": 5833,
      "Ġpassions": 5834,
      "Ġeverybody": 5835,
      "Ġtech": 5836,
      "Ġfaculties": 5837,
      "Me": 5838,
      "sided": 5839,
      "alous": 5840,
      "ĠPN": 5841,
      "ĠVishnu": 5842,
      "activity": 5843,
      "Ġblank": 5844,
      "Ġimmob": 5845,
      "Ġpassionate": 5846,
      "Ġindependence": 5847,
      "Ġlowest": 5848,
      "KS": 5849,
      "ae": 5850,
      "love": 5851,
      "pure": 5852,
      "Ġtal": 5853,
      "aka": 5854,
      "forward": 5855,
      "ploy": 5856,
      "Ġattribut": 5857,
      "Ġcreating": 5858,
      "Ġconsumm": 5859,
      "ĠÃł": 5860,
      "Ġstarted": 5861,
      "Ġiron": 5862,
      "Ġindicate": 5863,
      "ĠEvolution": 5864,
      "Ġtimeless": 5865,
      "SE": 5866,
      "mut": 5867,
      "ĠST": 5868,
      "Ġsto": 5869,
      "Ġalter": 5870,
      "Ġsoil": 5871,
      "Ġartist": 5872,
      "Ġconsciously": 5873,
      "Ġpractically": 5874,
      "Ġframe": 5875,
      "ĠSurya": 5876,
      "Ġgather": 5877,
      "usions": 5878,
      "Ġleaving": 5879,
      "ĠInconscience": 5880,
      "ĠARI": 5881,
      "Ġfields": 5882,
      "ĠMahomed": 5883,
      "En": 5884,
      "earth": 5885,
      "government": 5886,
      "ÅĨ": 5887,
      "eration": 5888,
      "raid": 5889,
      "Ġseated": 5890,
      "ĠCI": 5891,
      "Ġcontro": 5892,
      "ava": 5893,
      "Ġeduc": 5894,
      "willing": 5895,
      "Ġreturns": 5896,
      "ouraged": 5897,
      "Ġrepresentative": 5898,
      "Ġpreparing": 5899,
      "Ġconcerned": 5900,
      "KA": 5901,
      "aar": 5902,
      "han": 5903,
      "tr": 5904,
      "another": 5905,
      "imag": 5906,
      "Ġconceptions": 5907,
      "ospel": 5908,
      "ARE": 5909,
      "Ġelimin": 5910,
      "Ġwritings": 5911,
      "Ġaccompan": 5912,
      "Ġepit": 5913,
      "46": 5914,
      "Po": 5915,
      "ew": 5916,
      "Ġtask": 5917,
      "Ġbow": 5918,
      "often": 5919,
      "ounds": 5920,
      "ĠThose": 5921,
      "Ġemerge": 5922,
      "Ġrightly": 5923,
      "Ġmetre": 5924,
      "Ġcorresponding": 5925,
      "Ġarticle": 5926,
      "Ġuniversality": 5927,
      "FA": 5928,
      "],": 5929,
      "Ġwalk": 5930,
      "Ġbig": 5931,
      "Ġinmost": 5932,
      "orse": 5933,
      "aund": 5934,
      "ATI": 5935,
      "Ġassist": 5936,
      "Ġswapna": 5937,
      "ĠConference": 5938,
      "Ġcritical": 5939,
      "Ġabandon": 5940,
      "PL": 5941,
      "uity": 5942,
      "icit": 5943,
      "ĠScript": 5944,
      "ĠMad": 5945,
      "ĠMNA": 5946,
      "science": 5947,
      "Ġlights": 5948,
      "going": 5949,
      "Ġeternally": 5950,
      "Ġseparation": 5951,
      "ÅĽv": 5952,
      "Ġmetaphysical": 5953,
      "against": 5954,
      "Ad": 5955,
      "ZI": 5956,
      "once": 5957,
      "Ġdate": 5958,
      "sem": 5959,
      "idge": 5960,
      "ĠSadhana": 5961,
      "Ġconfined": 5962,
      "Ġindul": 5963,
      "Ġnorm": 5964,
      "Ġwanted": 5965,
      "Ġmoments": 5966,
      "Ġgoverning": 5967,
      "Ġdenied": 5968,
      "swered": 5969,
      "Ġchatusthaya": 5970,
      "Europe": 5971,
      "ka": 5972,
      "loss": 5973,
      "Ġ}": 5974,
      "inst": 5975,
      "itu": 5976,
      "Ġinternational": 5977,
      "Ġhat": 5978,
      "constant": 5979,
      "Ġselfish": 5980,
      "Ġthyself": 5981,
      "Ġmostly": 5982,
      "Ġ35": 5983,
      "Ġtraining": 5984,
      "Ġattacks": 5985,
      "Ġmarked": 5986,
      "Ġprayer": 5987,
      "cour": 5988,
      "gain": 5989,
      "sam": 5990,
      "Ġbrah": 5991,
      "Ġlaug": 5992,
      "ĠIl": 5993,
      "Ġconven": 5994,
      "ĠFuture": 5995,
      "Ġdisgu": 5996,
      "Ġutil": 5997,
      "ĠSpiritual": 5998,
      "Ġmainly": 5999,
      "ĠYogin": 6000,
      "Ġcombined": 6001,
      "clusions": 6002,
      "sometimes": 6003,
      "Ġadopt": 6004,
      "CI": 6005,
      "Pra": 6006,
      "aA": 6007,
      "mon": 6008,
      "sed": 6009,
      "Ġrom": 6010,
      "anas": 6011,
      "Ġthro": 6012,
      "Ġhum": 6013,
      "Ġdata": 6014,
      "Ġeat": 6015,
      "ulated": 6016,
      "usha": 6017,
      "ĠVI": 6018,
      "Ġimpris": 6019,
      "Ġadoration": 6020,
      "Ġrefuge": 6021,
      "Ġstumbling": 6022,
      "back": 6023,
      "represent": 6024,
      "Ġgaa": 6025,
      "ĠRes": 6026,
      "ĠOR": 6027,
      "elt": 6028,
      "begin": 6029,
      "imitive": 6030,
      "ferences": 6031,
      "Ġkeeping": 6032,
      "Ġloved": 6033,
      "Ġprovided": 6034,
      "Ġsteady": 6035,
      "Ġwonderful": 6036,
      "Ġenemies": 6037,
      "Ġintelligent": 6038,
      "AP": 6039,
      "Ġcow": 6040,
      "vey": 6041,
      "amb": 6042,
      "ĠDelight": 6043,
      "Thus": 6044,
      "Ġfinding": 6045,
      "Ġassent": 6046,
      "Ġrefusal": 6047,
      "Ġaccustomed": 6048,
      "Ġmonths": 6049,
      "seeing": 6050,
      "Ġcritic": 6051,
      "ĠIdea": 6052,
      "áº¹": 6053,
      "Ġthreat": 6054,
      "Ġdaughter": 6055,
      "Ġreaches": 6056,
      "Ġexclusive": 6057,
      "Ġours": 6058,
      "ĠWay": 6059,
      "arshi": 6060,
      "Ġcondem": 6061,
      "ertitude": 6062,
      "ONI": 6063,
      "eches": 6064,
      "understanding": 6065,
      "Ġpromise": 6066,
      "Ġinj": 6067,
      "Ġlength": 6068,
      "aked": 6069,
      "Ġenormous": 6070,
      "Ġattached": 6071,
      "Ġtears": 6072,
      "Ġsentence": 6073,
      "ĠPrana": 6074,
      "Ġinevitably": 6075,
      "Ġclaims": 6076,
      "Ġpatient": 6077,
      "Ġbuilding": 6078,
      "Ġdeclared": 6079,
      "Ġtypes": 6080,
      "Ġversion": 6081,
      "Ġrendering": 6082,
      ".]": 6083,
      "Over": 6084,
      "Ġbless": 6085,
      "ĠTS": 6086,
      "Ġriver": 6087,
      "ĠRuss": 6088,
      "ĠGrace": 6089,
      "Ġproved": 6090,
      "oycott": 6091,
      "avad": 6092,
      "Ġpsychology": 6093,
      "Ġabsurd": 6094,
      "Ġcreed": 6095,
      "archy": 6096,
      "Ġrepresented": 6097,
      "Ġpursuit": 6098,
      "Ġstriking": 6099,
      "Ġbesides": 6100,
      "Ġpay": 6101,
      "Ġpale": 6102,
      "ĠAmer": 6103,
      "ĠIII": 6104,
      "version": 6105,
      "Ġkings": 6106,
      "anti": 6107,
      "pta": 6108,
      "Ġ37": 6109,
      "Ġgrown": 6110,
      "Ġchanging": 6111,
      "Ġdisciples": 6112,
      "Ġhorse": 6113,
      "Ġmixture": 6114,
      "DD": 6115,
      "itter": 6116,
      "Ġyoga": 6117,
      "ustom": 6118,
      "Ġherds": 6119,
      "system": 6120,
      "Ġstrive": 6121,
      "Ġpoetical": 6122,
      "Ġmodified": 6123,
      "ĠBeauty": 6124,
      "Ġoriginally": 6125,
      "Ġpetty": 6126,
      "tis": 6127,
      "Ġbo": 6128,
      "ĠNN": 6129,
      "ĠNa": 6130,
      "Ġdisappo": 6131,
      "Ġdrink": 6132,
      "clear": 6133,
      "ĠIntell": 6134,
      "Ġremarkable": 6135,
      "URA": 6136,
      "line": 6137,
      "say": 6138,
      "tra": 6139,
      "Ġsister": 6140,
      "Ġmouth": 6141,
      "asis": 6142,
      "Ġnotice": 6143,
      "Ġweap": 6144,
      "Ġaltern": 6145,
      "ĠRT": 6146,
      "ĠHist": 6147,
      "Ġcontained": 6148,
      "Ġcalling": 6149,
      "ĠMahabharata": 6150,
      "satisfied": 6151,
      "ĠModerate": 6152,
      "Ġderiv": 6153,
      "limited": 6154,
      "Ary": 6155,
      "ilf": 6156,
      "rated": 6157,
      "orne": 6158,
      "Ġdumb": 6159,
      "ented": 6160,
      "ĠTilak": 6161,
      "ivisible": 6162,
      "gend": 6163,
      "ĠPhysical": 6164,
      "ĠVital": 6165,
      "Ġrealities": 6166,
      "imitable": 6167,
      "poetry": 6168,
      "Ġstreams": 6169,
      "Ġrecurrence": 6170,
      "Ġdefeat": 6171,
      "Ġforgotten": 6172,
      "URE": 6173,
      "Ġrebirth": 6174,
      "ĠTexts": 6175,
      "Ġheat": 6176,
      "Ġprove": 6177,
      "manent": 6178,
      "Ġclos": 6179,
      "ĠARN": 6180,
      "Ġinside": 6181,
      "arkness": 6182,
      "Ġexpressing": 6183,
      "Ġpossesses": 6184,
      "Ġ47": 6185,
      "ORKS": 6186,
      "called": 6187,
      "Ġenlightened": 6188,
      "Ġintrodu": 6189,
      "Bo": 6190,
      "Ġcal": 6191,
      "Ġworse": 6192,
      "Ġviews": 6193,
      "substance": 6194,
      "Ġmiracle": 6195,
      "Ġverses": 6196,
      "Ġemphas": 6197,
      "Ġmessage": 6198,
      "PLETE": 6199,
      "came": 6200,
      "ĠaAA": 6201,
      "second": 6202,
      "Ġanswered": 6203,
      "Ġstre": 6204,
      "ĠMed": 6205,
      "ĠTheir": 6206,
      "ĠYour": 6207,
      "ĠJiva": 6208,
      "Ġaaar": 6209,
      "Ġrepetition": 6210,
      "ĠArj": 6211,
      "Ġoperation": 6212,
      "OMPLETE": 6213,
      "Ġscholars": 6214,
      "Ġhopes": 6215,
      "Ġfurther": 6216,
      "VI": 6217,
      "different": 6218,
      "ora": 6219,
      "Ġbeast": 6220,
      "semb": 6221,
      "Ġgulf": 6222,
      "osity": 6223,
      "ĠNEA": 6224,
      "Ġuni": 6225,
      "acing": 6226,
      "ĠWar": 6227,
      "ĠJiv": 6228,
      "Ġtranslations": 6229,
      "Ġdemocratic": 6230,
      "Ġsteadily": 6231,
      "Other": 6232,
      "iable": 6233,
      "pon": 6234,
      "Ġade": 6235,
      "ĠAb": 6236,
      "Ġmeasures": 6237,
      "conqu": 6238,
      "Ġplun": 6239,
      "Ġobedience": 6240,
      "ARS": 6241,
      "Ġcenturies": 6242,
      "uck": 6243,
      "Ġvariation": 6244,
      "Ġassociated": 6245,
      ":.": 6246,
      "Ġendless": 6247,
      "Ġdistance": 6248,
      "Ġwriter": 6249,
      "Ġscene": 6250,
      "Ġreflection": 6251,
      "Ġholding": 6252,
      "Ġsuccessfully": 6253,
      "Ġfool": 6254,
      "ĠCommittee": 6255,
      "Ã£": 6256,
      "Ġara": 6257,
      "ĠTitan": 6258,
      "Ġran": 6259,
      "Ġmanif": 6260,
      "ĠEach": 6261,
      "ĠLe": 6262,
      "dev": 6263,
      "arest": 6264,
      "Ġdiscern": 6265,
      "ENA": 6266,
      "ĠSwar": 6267,
      "Being": 6268,
      "highest": 6269,
      "operation": 6270,
      "Ġopportunity": 6271,
      "eous": 6272,
      "luminous": 6273,
      "Ġaq": 6274,
      "Ġpush": 6275,
      "uts": 6276,
      "ĠSank": 6277,
      "Ġtranqu": 6278,
      "Ġperse": 6279,
      "Äģd": 6280,
      "ublic": 6281,
      "knowable": 6282,
      "Ġcompletely": 6283,
      "Ġeasier": 6284,
      "Ġ...": 6285,
      "cluded": 6286,
      "Ġdescends": 6287,
      "ĠPhil": 6288,
      "ĠWritings": 6289,
      "Ġinstitutions": 6290,
      "Ġhelpless": 6291,
      "gra": 6292,
      "whether": 6293,
      "Ġtort": 6294,
      "Ġgift": 6295,
      "ĠSomet": 6296,
      "Ġang": 6297,
      "Ġsection": 6298,
      "Ġhes": 6299,
      "ulate": 6300,
      "umes": 6301,
      "ĠRAA": 6302,
      "Ġray": 6303,
      "supramental": 6304,
      "Ġsupraphysical": 6305,
      "Ġtread": 6306,
      "Ġaddition": 6307,
      "Ġlocal": 6308,
      "Ġmedium": 6309,
      "CT": 6310,
      "ÅĦ": 6311,
      "Ġrejo": 6312,
      "ĠPan": 6313,
      "Ġunm": 6314,
      "acities": 6315,
      "Ġris": 6316,
      "Ġafraid": 6317,
      "Ġentering": 6318,
      "ilege": 6319,
      "Ġreligions": 6320,
      "erring": 6321,
      "Ġheavenly": 6322,
      "Ġsentiment": 6323,
      "Ġsincerity": 6324,
      "Ġexercise": 6325,
      "far": 6326,
      "faa": 6327,
      "pri": 6328,
      "ÃŃ": 6329,
      "Ġgiant": 6330,
      "three": 6331,
      "rose": 6332,
      "ĠBomb": 6333,
      "ĠVijnana": 6334,
      "Ġdespair": 6335,
      "Ġpreoccup": 6336,
      "Ġ21": 6337,
      "Ġteach": 6338,
      "Ġvaried": 6339,
      "Ġadvent": 6340,
      "Ġwatch": 6341,
      "Ġtelepath": 6342,
      "Ġmaintained": 6343,
      "satisfaction": 6344,
      "Ġabstract": 6345,
      "Ġpuiss": 6346,
      "BIN": 6347,
      "Dra": 6348,
      "aq": 6349,
      "both": 6350,
      "dest": 6351,
      "Ġcit": 6352,
      "ĠTT": 6353,
      "ĠPress": 6354,
      "Ġprinted": 6355,
      "Ġafternoon": 6356,
      "Ġprak": 6357,
      "Ġ39": 6358,
      "Ġbroad": 6359,
      "Ġdescending": 6360,
      "Ġshapes": 6361,
      "bur": 6362,
      "lation": 6363,
      "serv": 6364,
      "Ġhall": 6365,
      "Ġhorses": 6366,
      "Ġgiver": 6367,
      "ĠTO": 6368,
      "Ġhearing": 6369,
      "ĠPerson": 6370,
      "Ġkiss": 6371,
      "ĠCent": 6372,
      "Ġgreatly": 6373,
      "Äģh": 6374,
      "except": 6375,
      "shall": 6376,
      "Ġsensational": 6377,
      "ottama": 6378,
      "Ġexpansion": 6379,
      "ĠBirth": 6380,
      "Ġplaced": 6381,
      "Ġprimitive": 6382,
      "Ġremed": 6383,
      "Ġimagine": 6384,
      "ĠAtman": 6385,
      "Ġregards": 6386,
      "Ġaffected": 6387,
      "Ġappreci": 6388,
      "given": 6389,
      "nana": 6390,
      "ously": 6391,
      "ĠPAN": 6392,
      "Ġknowl": 6393,
      "Ġstrict": 6394,
      "working": 6395,
      "Ġhelped": 6396,
      "Ġcapital": 6397,
      "Ġattempted": 6398,
      "quiry": 6399,
      "greg": 6400,
      "ĠAD": 6401,
      "ĠIET": 6402,
      "Ġmel": 6403,
      "ĠCy": 6404,
      "ishaya": 6405,
      "vels": 6406,
      "Äģr": 6407,
      "away": 6408,
      "Ġremo": 6409,
      "Ġvastness": 6410,
      "ROBIN": 6411,
      "Ġhonour": 6412,
      "jÃ±Äģna": 6413,
      "ĠDharma": 6414,
      "ROBINDO": 6415,
      "Knowledge": 6416,
      "UG": 6417,
      "del": 6418,
      "atha": 6419,
      "ĠIO": 6420,
      "ĠPsychic": 6421,
      "Ġproblems": 6422,
      "ĠShankara": 6423,
      "Ġvalid": 6424,
      "impul": 6425,
      "Ġtranslated": 6426,
      "athered": 6427,
      "cher": 6428,
      "gover": 6429,
      "gods": 6430,
      "Ġgle": 6431,
      "ĠDiv": 6432,
      "Ġwaste": 6433,
      "depend": 6434,
      "Ġprana": 6435,
      "Ġinterpre": 6436,
      "Ġobscurity": 6437,
      "Ġseparated": 6438,
      "Ġseparative": 6439,
      "ized": 6440,
      "Ġtrees": 6441,
      "Ġcontaining": 6442,
      "Ġexperiment": 6443,
      "Ġobliged": 6444,
      "UREDD": 6445,
      "Karma": 6446,
      "NUREDD": 6447,
      "div": 6448,
      "Ġlone": 6449,
      "entire": 6450,
      "iring": 6451,
      "ĠSee": 6452,
      "Ġinvisible": 6453,
      "Ġdelivered": 6454,
      "Ġimpressions": 6455,
      "Ġmanuscripts": 6456,
      "Ġrecently": 6457,
      "Ġargument": 6458,
      "oric": 6459,
      "Ġtop": 6460,
      "asiddhi": 6461,
      "Ġstim": 6462,
      "quiet": 6463,
      "Ġmyth": 6464,
      "Thought": 6465,
      "evertheless": 6466,
      "Ġdoubtful": 6467,
      "Ġautomatic": 6468,
      "After": 6469,
      "Boox": 6470,
      "NUREDDENE": 6471,
      "Bl": 6472,
      "hel": 6473,
      "Ġsed": 6474,
      "Ġsink": 6475,
      "ĠAG": 6476,
      "Ġabol": 6477,
      "Ġformal": 6478,
      "Ġthinkers": 6479,
      "Ġsystems": 6480,
      "Ġpartially": 6481,
      "Ġgodheads": 6482,
      "Ġgoverns": 6483,
      "Ġsiddhis": 6484,
      ".âĢĻ": 6485,
      "44": 6486,
      "night": 6487,
      "Ã¢": 6488,
      "erates": 6489,
      "Ġreference": 6490,
      "urs": 6491,
      "adr": 6492,
      "Ġslain": 6493,
      "Ġclasses": 6494,
      "Ġsummit": 6495,
      "Ġconfirmed": 6496,
      "ĠHigher": 6497,
      "AE": 6498,
      "aith": 6499,
      "oa": 6500,
      "Ġeg": 6501,
      "Ġhair": 6502,
      "Ġwilling": 6503,
      "ops": 6504,
      "Ġacross": 6505,
      "ensity": 6506,
      "Ġforceful": 6507,
      "Ġspr": 6508,
      "Ġmodes": 6509,
      "Ġdivers": 6510,
      "Ġimaginative": 6511,
      "Ġexactly": 6512,
      "veller": 6513,
      "lossary": 6514,
      "33": 6515,
      "Pe": 6516,
      "iation": 6517,
      "isable": 6518,
      "Ġsages": 6519,
      "Ġmal": 6520,
      "ĠAaa": 6521,
      "ĠRs": 6522,
      "ogic": 6523,
      "Ġtemple": 6524,
      "Ġinco": 6525,
      "control": 6526,
      "ĠNationalists": 6527,
      "rupted": 6528,
      "Ġexecutive": 6529,
      "fts": 6530,
      "iatic": 6531,
      "sent": 6532,
      "Ġmantra": 6533,
      "urable": 6534,
      "eternal": 6535,
      "ria": 6536,
      "rown": 6537,
      "Ġphysically": 6538,
      "centration": 6539,
      "Ġsecondly": 6540,
      "Ġdescribe": 6541,
      "possession": 6542,
      "Ġsituation": 6543,
      "ulgence": 6544,
      "rimin": 6545,
      "ancy": 6546,
      "Ġchapters": 6547,
      "ouched": 6548,
      "Ġdance": 6549,
      "olent": 6550,
      "ĠKena": 6551,
      "Ġstillness": 6552,
      "Ġconsist": 6553,
      "Ġefforts": 6554,
      "Ġjoin": 6555,
      "Ġhampered": 6556,
      "ctrine": 6557,
      "Script": 6558,
      "band": 6559,
      "gans": 6560,
      "mar": 6561,
      "Ġmah": 6562,
      "Ġlifted": 6563,
      "ĠIAI": 6564,
      "andamaya": 6565,
      "ĠBha": 6566,
      "rup": 6567,
      "pping": 6568,
      "Ġarrest": 6569,
      "Ġcontr": 6570,
      "ĠSeer": 6571,
      "Ġcountries": 6572,
      "fluence": 6573,
      "Ġpersonalities": 6574,
      "Ġceased": 6575,
      "Ġwaiting": 6576,
      "Ġreveals": 6577,
      "UTH": 6578,
      "aze": 6579,
      "shi": 6580,
      "yal": 6581,
      "Ġtone": 6582,
      "Ġwilt": 6583,
      "entle": 6584,
      "racted": 6585,
      "ĠSam": 6586,
      "anted": 6587,
      "ĠOwn": 6588,
      "ĠHigh": 6589,
      "Ġpersons": 6590,
      "Ġarrives": 6591,
      "ĠConscious": 6592,
      "ize": 6593,
      "Ġsuccession": 6594,
      "Ġsets": 6595,
      "Ġbreaks": 6596,
      "Ġreceiving": 6597,
      "Ġstrike": 6598,
      "sc": 6599,
      "yot": 6600,
      "Ġtang": 6601,
      "Ġaust": 6602,
      "Ġcaught": 6603,
      "Ġhus": 6604,
      "idental": 6605,
      "ĠSure": 6606,
      "Ġarch": 6607,
      "AND": 6608,
      "Ġtransient": 6609,
      "ĠJap": 6610,
      "Ġdisturbed": 6611,
      "Ġcompleted": 6612,
      "Ġprofess": 6613,
      "ĠEducation": 6614,
      "Ġawakened": 6615,
      "Ġflowing": 6616,
      "Ġmurm": 6617,
      "National": 6618,
      "eenth": 6619,
      "god": 6620,
      "wins": 6621,
      "Ġtor": 6622,
      "atically": 6623,
      "ution": 6624,
      "cts": 6625,
      "eting": 6626,
      "ĠREA": 6627,
      "ĠWORKS": 6628,
      "ĠVII": 6629,
      "Ġnews": 6630,
      "grim": 6631,
      "Ġharmonious": 6632,
      "Ġradical": 6633,
      "Ġradiant": 6634,
      "kshma": 6635,
      "ĠAch": 6636,
      "Ġstory": 6637,
      "perception": 6638,
      "Ġsubjects": 6639,
      "Ġglimp": 6640,
      "ĠÃ¤": 6641,
      "Ġconceive": 6642,
      "Ġcarefully": 6643,
      "Ġmilitary": 6644,
      "ĠCollege": 6645,
      "ĠAUROBINDO": 6646,
      "Ġhatred": 6647,
      "icated": 6648,
      "ĠPal": 6649,
      "ĠBI": 6650,
      "rud": 6651,
      "question": 6652,
      "ĠFrance": 6653,
      "Ġflo": 6654,
      "Ġexpressions": 6655,
      "Ġcontinually": 6656,
      "Ġpossibly": 6657,
      "Ġbirths": 6658,
      "Ġaffl": 6659,
      "Ġmajority": 6660,
      "Ġextraordinary": 6661,
      "EE": 6662,
      "YA": 6663,
      "ole": 6664,
      "Ġbri": 6665,
      "Ġthick": 6666,
      "Ġhint": 6667,
      "ĠCOMPLETE": 6668,
      "ĠEN": 6669,
      "Ġresolution": 6670,
      "Ġpassivity": 6671,
      "Ġinsistent": 6672,
      "Ġsaf": 6673,
      "Ġmortals": 6674,
      "Ġprovince": 6675,
      "Ġavail": 6676,
      "Ġgrey": 6677,
      "Ġevolving": 6678,
      "Ġineffable": 6679,
      "Utthapana": 6680,
      "port": 6681,
      "rig": 6682,
      "vent": 6683,
      "Ġcf": 6684,
      "Ġdam": 6685,
      "Ġgospel": 6686,
      "adrishti": 6687,
      "Ġconclusions": 6688,
      "Ġexcell": 6689,
      "olves": 6690,
      "ĠRN": 6691,
      "ideas": 6692,
      "conn": 6693,
      "Ġanybody": 6694,
      "Äģs": 6695,
      "ĠForces": 6696,
      "Ġentry": 6697,
      "Ġdisciple": 6698,
      "ĠPresident": 6699,
      "Ġscheme": 6700,
      "Le": 6701,
      "circ": 6702,
      "field": 6703,
      "shat": 6704,
      "atman": 6705,
      "igue": 6706,
      "Ġwear": 6707,
      "ibh": 6708,
      "Ġeditors": 6709,
      "Ġminute": 6710,
      "attempt": 6711,
      "ĠNothing": 6712,
      "Ġclosely": 6713,
      "Ġconvention": 6714,
      "Ġmidst": 6715,
      "created": 6716,
      "ĠAngiras": 6717,
      "08": 6718,
      "Bengal": 6719,
      "Rem": 6720,
      "main": 6721,
      "alter": 6722,
      "Ġpil": 6723,
      "Ġrenew": 6724,
      "Ġvary": 6725,
      "Ġdece": 6726,
      "Ġclosed": 6727,
      "oubt": 6728,
      "Ġcultural": 6729,
      "pretation": 6730,
      "Ġofferings": 6731,
      "ĠEmpire": 6732,
      "Ġintermediate": 6733,
      "aundarya": 6734,
      "tas": 6735,
      "ĠAc": 6736,
      "igious": 6737,
      "Ġanti": 6738,
      "ĠBri": 6739,
      "ĠBab": 6740,
      "ĠVas": 6741,
      "Ġlegend": 6742,
      "Ġexperienced": 6743,
      "Ġdifferences": 6744,
      "Ġinterfe": 6745,
      "Ġphilosopher": 6746,
      "Ġproceeding": 6747,
      "Ġobstinate": 6748,
      "Ġutterance": 6749,
      "Ġdrawing": 6750,
      "general": 6751,
      "Ġdrama": 6752,
      "feeling": 6753,
      "ĠSpeech": 6754,
      "Ġchannel": 6755,
      "Am": 6756,
      "Agni": 6757,
      "CUTTA": 6758,
      "mas": 6759,
      "oh": 6760,
      "rather": 6761,
      "infinite": 6762,
      "itimate": 6763,
      "Ġsle": 6764,
      "Ġbaff": 6765,
      "eter": 6766,
      "Ġvill": 6767,
      "ila": 6768,
      "Ġcomfort": 6769,
      "ĠRAT": 6770,
      "ĠCAL": 6771,
      "Ġsubstantial": 6772,
      "Ġclam": 6773,
      "Ġentity": 6774,
      "ĠAAS": 6775,
      "Ġcreations": 6776,
      "Ġutmost": 6777,
      "Ġincident": 6778,
      "Ġfaces": 6779,
      "Ġphilosophic": 6780,
      "Ġsurvival": 6781,
      "Ġadmits": 6782,
      "Ġdestroyed": 6783,
      "Ġascending": 6784,
      "English": 6785,
      "VUTH": 6786,
      "liness": 6787,
      "Ġaea": 6788,
      "secret": 6789,
      "oler": 6790,
      "Ġknot": 6791,
      "Their": 6792,
      "ĠOcean": 6793,
      "Ġscenes": 6794,
      "Ġescap": 6795,
      "Ġstarts": 6796,
      "ĠExperi": 6797,
      "Ġdepth": 6798,
      "rimination": 6799,
      "gramme": 6800,
      "Ġadministration": 6801,
      "ĠCALCUTTA": 6802,
      "VUTHSA": 6803,
      "Ġcovered": 6804,
      "Ġtoil": 6805,
      "Ġbears": 6806,
      "ima": 6807,
      "iform": 6808,
      "ids": 6809,
      "ĠFather": 6810,
      "notated": 6811,
      "Ġwhenever": 6812,
      "Ġyours": 6813,
      "ĠJA": 6814,
      "Ġinsists": 6815,
      "Ġ31": 6816,
      "Ġbackground": 6817,
      "Ġcorre": 6818,
      "Ġcommunication": 6819,
      "Ġemerges": 6820,
      "Ġfrequently": 6821,
      "ĠWhatever": 6822,
      "however": 6823,
      "Ġplenitude": 6824,
      "och": 6825,
      "zz": 6826,
      "Ġwake": 6827,
      "enjoy": 6828,
      "Ġcred": 6829,
      "Ġhither": 6830,
      "Ġdry": 6831,
      "Ġlate": 6832,
      "Ġperish": 6833,
      "Ġimpet": 6834,
      "bliss": 6835,
      "Ġremove": 6836,
      "Ġ36": 6837,
      "Ġsensations": 6838,
      "Ġpublication": 6839,
      "Ġsuccessive": 6840,
      "established": 6841,
      "efence": 6842,
      "ankim": 6843,
      "Ġessentially": 6844,
      "Ġrevealing": 6845,
      "ĠAlso": 6846,
      "Ġvigorous": 6847,
      "Ġschools": 6848,
      "Ġconversion": 6849,
      "IV": 6850,
      "fr": 6851,
      "rating": 6852,
      "vat": 6853,
      "alle": 6854,
      "Ġinhabit": 6855,
      "Ġpity": 6856,
      "Ġgirl": 6857,
      "urg": 6858,
      "Ġforb": 6859,
      "ĠWisdom": 6860,
      "open": 6861,
      "ĠVast": 6862,
      "Ġflight": 6863,
      "Ġrus": 6864,
      "Ġdemon": 6865,
      "Ġexpected": 6866,
      "Ġabsorbed": 6867,
      "Ġlargeness": 6868,
      "Ġmanifold": 6869,
      "Today": 6870,
      "hor": 6871,
      "ignorance": 6872,
      "Ġdesign": 6873,
      "eps": 6874,
      "Ġlightning": 6875,
      "ĠUr": 6876,
      "Ġconsistent": 6877,
      "Ġinterchange": 6878,
      "erseus": 6879,
      "INA": 6880,
      "ĠMahakali": 6881,
      "Ġrhythmic": 6882,
      "Ġvariations": 6883,
      "Ġoccurs": 6884,
      "58": 6885,
      "Des": 6886,
      "JE": 6887,
      "living": 6888,
      "Â°": 6889,
      "Ġapt": 6890,
      "itled": 6891,
      "Ġsv": 6892,
      "Ġla": 6893,
      "Ġling": 6894,
      "thou": 6895,
      "ĠMet": 6896,
      "romise": 6897,
      "Ġanywhere": 6898,
      "Ġindirect": 6899,
      "Ġque": 6900,
      "Ġabsent": 6901,
      "Ġregion": 6902,
      "Ġpressing": 6903,
      "ukta": 6904,
      "Ġservant": 6905,
      "Ġrepeat": 6906,
      "Ġpursued": 6907,
      "Ġfavourable": 6908,
      "Ġfiery": 6909,
      "integr": 6910,
      "Ġhappenings": 6911,
      "Ra": 6912,
      "psych": 6913,
      "pati": 6914,
      "sure": 6915,
      "Ġlaughter": 6916,
      "seems": 6917,
      "urous": 6918,
      "ayu": 6919,
      "ĠPAI": 6920,
      "Ġworst": 6921,
      "umed": 6922,
      "ĠLiber": 6923,
      "plane": 6924,
      "Ġ1930": 6925,
      "lip": 6926,
      "Ġelect": 6927,
      "Ġblissful": 6928,
      "Ġwarri": 6929,
      "Ġidentical": 6930,
      "bring": 6931,
      "ĠCommentaries": 6932,
      "awareness": 6933,
      "Ġcomparative": 6934,
      "Ġjagrat": 6935,
      "56": 6936,
      "Well": 6937,
      "direct": 6938,
      "Ġtram": 6939,
      "ĠaE": 6940,
      "Ġcell": 6941,
      "Ġlion": 6942,
      "amed": 6943,
      "accom": 6944,
      "Ġrough": 6945,
      "ĠDream": 6946,
      "ĠDefence": 6947,
      "Ġintervention": 6948,
      "pended": 6949,
      "Ġrecoil": 6950,
      "Ġvehe": 6951,
      "Ġdetermines": 6952,
      "Ġsources": 6953,
      "Ġdemanded": 6954,
      "Ġproduced": 6955,
      "Ġproportion": 6956,
      "Ġinwardly": 6957,
      "Ġchiefly": 6958,
      "Ġaffirmation": 6959,
      "Ġdeparture": 6960,
      "common": 6961,
      "Ġexcessive": 6962,
      "57": 6963,
      "Matter": 6964,
      "mination": 6965,
      "personality": 6966,
      "Ä°": 6967,
      "seem": 6968,
      "ĠTAT": 6969,
      "aker": 6970,
      "olence": 6971,
      "Ġranges": 6972,
      "union": 6973,
      "ĠLiter": 6974,
      "Ġcontribut": 6975,
      "Ġclasp": 6976,
      "cribed": 6977,
      "Ġsatisfying": 6978,
      "Ġdeepest": 6979,
      "ĠAPA": 6980,
      "Ġrepresents": 6981,
      "Ġvictorious": 6982,
      "Ġdegrees": 6983,
      "Ġsacrifices": 6984,
      "59": 6985,
      "Pro": 6986,
      "cast": 6987,
      "upend": 6988,
      "Ġai": 6989,
      "Ġchapter": 6990,
      "ician": 6991,
      "aman": 6992,
      "Ġaccord": 6993,
      "Ġattraction": 6994,
      "Ġremn": 6995,
      "ertainly": 6996,
      "Ġspring": 6997,
      "Ġjoys": 6998,
      "parts": 6999,
      "Ġincarn": 7000,
      "Ġskill": 7001,
      "intellig": 7002,
      "Ġcarrying": 7003,
      "nique": 7004,
      "Ġdistinguish": 7005,
      "ĠHistorical": 7006,
      "Ma": 7007,
      "Sur": 7008,
      "hr": 7009,
      "tal": 7010,
      "Ġfas": 7011,
      "Ġcro": 7012,
      "Ġgains": 7013,
      "adise": 7014,
      "Ġanx": 7015,
      "thinking": 7016,
      "Ġunwilling": 7017,
      "ĠDel": 7018,
      "rows": 7019,
      "Ġrestless": 7020,
      "ENTS": 7021,
      "Ġprominent": 7022,
      "anamaya": 7023,
      "large": 7024,
      "ĠHinduism": 7025,
      "Ġconstruction": 7026,
      "Ġconsequences": 7027,
      "Ġmission": 7028,
      "Ġanalysis": 7029,
      "Ġfatal": 7030,
      "Ġjealous": 7031,
      "Ġisolated": 7032,
      "col": 7033,
      "ns": 7034,
      "sadhana": 7035,
      "reve": 7036,
      "Ġsage": 7037,
      "already": 7038,
      "Ġmount": 7039,
      "Ġhous": 7040,
      "ĠAm": 7041,
      "oduc": 7042,
      "Ġyoke": 7043,
      "peace": 7044,
      "ĠDis": 7045,
      "ounded": 7046,
      "Ġsubl": 7047,
      "comfort": 7048,
      "yapti": 7049,
      "Ġillimitable": 7050,
      "Ġprincipal": 7051,
      "Ġsimpl": 7052,
      "Ġreturned": 7053,
      "Ġdecided": 7054,
      "Ġquietly": 7055,
      "Ġactuality": 7056,
      "Ġdisappears": 7057,
      "ruption": 7058,
      "Ġfellow": 7059,
      "Ġcontradict": 7060,
      "Ġstreng": 7061,
      "cked": 7062,
      "maya": 7063,
      "political": 7064,
      "attered": 7065,
      "Ġkill": 7066,
      "Ġdisorder": 7067,
      "Ġindivisible": 7068,
      "Ġattract": 7069,
      "Ġroyal": 7070,
      "Ġwherever": 7071,
      "Ġstruggling": 7072,
      "Ġimaginations": 7073,
      "Ġinstrumentation": 7074,
      "Ġenlarge": 7075,
      "ruti": 7076,
      "Ġdreadful": 7077,
      "Ġenthusiasm": 7078,
      "ĠArjuna": 7079,
      "Book": 7080,
      "PR": 7081,
      "half": 7082,
      "ĠÄģ": 7083,
      "Ġarose": 7084,
      "requ": 7085,
      "istis": 7086,
      "Ġdeeds": 7087,
      "ĠRoman": 7088,
      "ĠChat": 7089,
      "iescence": 7090,
      "Ġshine": 7091,
      "Ġshock": 7092,
      "Ġdoer": 7093,
      "Ġnobl": 7094,
      "else": 7095,
      "apers": 7096,
      "Ġproud": 7097,
      "Ġaccent": 7098,
      "Ġindifference": 7099,
      "Ġaggress": 7100,
      "Ġinstances": 7101,
      "ĠATT": 7102,
      "Ġteacher": 7103,
      "Ġgloom": 7104,
      "Ġhighly": 7105,
      "disci": 7106,
      "Still": 7107,
      "Ġopinions": 7108,
      "Ġmilk": 7109,
      "Ġevolve": 7110,
      "Ġoccupied": 7111,
      "words": 7112,
      "ĠInterest": 7113,
      "Ġsharp": 7114,
      "mp": 7115,
      "rations": 7116,
      "ĠMo": 7117,
      "ĠMadh": 7118,
      "unate": 7119,
      "Ġstriving": 7120,
      "Ġspec": 7121,
      "Ġremote": 7122,
      "Ġrob": 7123,
      "Ġconstitu": 7124,
      "eval": 7125,
      "Ġcurious": 7126,
      "Ġconvin": 7127,
      "Ġtyped": 7128,
      "ĠWords": 7129,
      "vellous": 7130,
      "ĠImmortality": 7131,
      "ographical": 7132,
      "ĠBombay": 7133,
      "vo": 7134,
      "Ġvow": 7135,
      "riage": 7136,
      "abour": 7137,
      "Ġdisease": 7138,
      "armed": 7139,
      "Ġemploy": 7140,
      "Ġconsists": 7141,
      "Ġintegr": 7142,
      "Ġ1906": 7143,
      "Ġdecide": 7144,
      "Ġperceived": 7145,
      "Ġacquired": 7146,
      "Ġconcentrate": 7147,
      "ĠPhilosophy": 7148,
      "important": 7149,
      "Mr": 7150,
      "dy": 7151,
      "freedom": 7152,
      "iple": 7153,
      "Ã¼": 7154,
      "onic": 7155,
      "iced": 7156,
      "Ġgentle": 7157,
      "Ġhen": 7158,
      "ĠPa": 7159,
      "ĠBoycott": 7160,
      "ĠNon": 7161,
      "eping": 7162,
      "ĠKrishn": 7163,
      "exist": 7164,
      "ĠIndians": 7165,
      "isms": 7166,
      "Ġwriters": 7167,
      "Ġ1915": 7168,
      "ÅĽa": 7169,
      "Ġdestro": 7170,
      "ĠXX": 7171,
      "Ġcontacts": 7172,
      "Ġswiftly": 7173,
      "arshan": 7174,
      "method": 7175,
      "Perfection": 7176,
      "Prakriti": 7177,
      "tapas": 7178,
      "Ġterror": 7179,
      "Ġban": 7180,
      "Ġport": 7181,
      "idon": 7182,
      "ĠSilence": 7183,
      "esty": 7184,
      "jection": 7185,
      "hild": 7186,
      "symbol": 7187,
      "ANS": 7188,
      "ĠAsiatic": 7189,
      "Ġlimiting": 7190,
      "Ġdirected": 7191,
      "anguage": 7192,
      "ĠgaT": 7193,
      "Ġimperfectly": 7194,
      "faith": 7195,
      "Ġtranscendence": 7196,
      "Ġsamata": 7197,
      "Ġmagnific": 7198,
      "Ġincapacity": 7199,
      "Ġcontemporary": 7200,
      "country": 7201,
      "CONT": 7202,
      "Hymns": 7203,
      "More": 7204,
      "PUR": 7205,
      "Upon": 7206,
      "signific": 7207,
      "wide": 7208,
      "Ġcogn": 7209,
      "Ġpour": 7210,
      "essential": 7211,
      "ectar": 7212,
      "akrishna": 7213,
      "Ġunch": 7214,
      "perv": 7215,
      "unj": 7216,
      "abrahman": 7217,
      "beauty": 7218,
      "Ġspiritualised": 7219,
      "ĠAnnotated": 7220,
      "ocratic": 7221,
      "Ġdownward": 7222,
      "ONA": 7223,
      "welling": 7224,
      "Ġtrem": 7225,
      "ĠOtherwise": 7226,
      "Ġconstitute": 7227,
      "ĠAvidya": 7228,
      "ĠWorlds": 7229,
      "Ġsurvive": 7230,
      "Ġdissolution": 7231,
      "Ġhunger": 7232,
      "Oh": 7233,
      "cal": 7234,
      "itam": 7235,
      "Ġfame": 7236,
      "ĠPat": 7237,
      "universe": 7238,
      "athom": 7239,
      "tenance": 7240,
      "Ġrobe": 7241,
      "ocracy": 7242,
      "Ġdirections": 7243,
      "Ġ49": 7244,
      "Ġconfident": 7245,
      "Ġcapacities": 7246,
      "Ġcoherent": 7247,
      "Ġparticip": 7248,
      "Ġdefence": 7249,
      "Ġarmed": 7250,
      "Ġinstincts": 7251,
      "Ġresponsible": 7252,
      "Ġlotus": 7253,
      "Ġpicture": 7254,
      "sembly": 7255,
      "Ġsafety": 7256,
      "43": 7257,
      "Ac": 7258,
      "DE": 7259,
      "pain": 7260,
      "yav": 7261,
      "atÄģ": 7262,
      "Ġwishes": 7263,
      "arational": 7264,
      "Ġgall": 7265,
      "ĠSar": 7266,
      "resp": 7267,
      "ĠCAT": 7268,
      "ĠDep": 7269,
      "Ġ1931": 7270,
      "pendix": 7271,
      "ĠPurush": 7272,
      "Ġloves": 7273,
      "Ġtremend": 7274,
      "Ġclassical": 7275,
      "Ġreleased": 7276,
      "affirm": 7277,
      "Ġbirds": 7278,
      "Ġsubtler": 7279,
      "!âĢĿ": 7280,
      "IL": 7281,
      "Imm": 7282,
      "iest": 7283,
      "Ġincon": 7284,
      "Ġinability": 7285,
      "lex": 7286,
      "ĠTro": 7287,
      "umber": 7288,
      "ĠCha": 7289,
      "ĠGand": 7290,
      "ource": 7291,
      "Ġcham": 7292,
      "ultaneous": 7293,
      "ĠAsur": 7294,
      "Ġmetrical": 7295,
      "Ġtrained": 7296,
      "Ġpleasant": 7297,
      "ĠAgain": 7298,
      "ERIC": 7299,
      "URAVAS": 7300,
      "PURURAVAS": 7301,
      "Spe": 7302,
      "rict": 7303,
      "wr": 7304,
      "wat": 7305,
      "inet": 7306,
      "Ġsraddha": 7307,
      "Ġfals": 7308,
      "arning": 7309,
      "Ġloses": 7310,
      "Ġangu": 7311,
      "amil": 7312,
      "terior": 7313,
      "ĠNAI": 7314,
      "Ġunification": 7315,
      "reath": 7316,
      "ĠHar": 7317,
      "ĠKONT": 7318,
      "angers": 7319,
      "class": 7320,
      "veloped": 7321,
      "Ġ38": 7322,
      "ĠANS": 7323,
      "Ġrefuses": 7324,
      "Ġeditor": 7325,
      "Ġfinished": 7326,
      "ĠUniversal": 7327,
      "Ġdeliver": 7328,
      "Ġmultitude": 7329,
      "immedi": 7330,
      "Ġmasters": 7331,
      "Ġsucceeded": 7332,
      "original": 7333,
      "Ä°ST": 7334,
      "Again": 7335,
      "PE": 7336,
      "cks": 7337,
      "hic": 7338,
      "national": 7339,
      "Ġcries": 7340,
      "ĠAct": 7341,
      "Ġordered": 7342,
      "Ġnotions": 7343,
      "aying": 7344,
      "Ġseas": 7345,
      "according": 7346,
      "ĠCre": 7347,
      "ĠVrit": 7348,
      "Ġraces": 7349,
      "ifications": 7350,
      "ipin": 7351,
      "Ġstandards": 7352,
      "Ġintellectuality": 7353,
      "Ġfails": 7354,
      "Ġavo": 7355,
      "...": 7356,
      "Ġdraws": 7357,
      "gypt": 7358,
      "Ġthousands": 7359,
      "Ġdiminished": 7360,
      "Ġwheel": 7361,
      "adrsti": 7362,
      "Ġpilgrim": 7363,
      "CONTENTS": 7364,
      "CH": 7365,
      "uitive": 7366,
      "hets": 7367,
      "ĠAe": 7368,
      "ĠTra": 7369,
      "idable": 7370,
      "ĠRaksh": 7371,
      "ĠDay": 7372,
      "Ġdoom": 7373,
      "Ġtrou": 7374,
      "agraph": 7375,
      "ĠVedas": 7376,
      "Ġpresents": 7377,
      "ĠBrahmin": 7378,
      "Ġregions": 7379,
      "Ġpointed": 7380,
      "Ġfinality": 7381,
      "Ġpersists": 7382,
      "Ġdelicate": 7383,
      "eneath": 7384,
      "Ġcaste": 7385,
      "Ġindicates": 7386,
      "Ġmistaken": 7387,
      "Ġmachine": 7388,
      "meaning": 7389,
      "recogn": 7390,
      "ilful": 7391,
      "ĠSankhya": 7392,
      "Rupa": 7393,
      "makes": 7394,
      "ye": 7395,
      "isher": 7396,
      "Ġsarv": 7397,
      "Ġdense": 7398,
      "Ġnerves": 7399,
      "Ġconcept": 7400,
      "ĠDE": 7401,
      "Ġwills": 7402,
      "Ġupper": 7403,
      "dec": 7404,
      "deal": 7405,
      "Ġflesh": 7406,
      "conditions": 7407,
      "Ġkeen": 7408,
      "Ġrevision": 7409,
      "ĠEnglishman": 7410,
      "Ġimpulsion": 7411,
      "Ġexplained": 7412,
      "Ġaltar": 7413,
      "Ġtells": 7414,
      "Ġdramatic": 7415,
      "ĠVaishn": 7416,
      "Ġlatent": 7417,
      "ĠCouncil": 7418,
      "Ġtremendous": 7419,
      "cf": 7420,
      "sing": 7421,
      "ton": 7422,
      "tell": 7423,
      "revel": 7424,
      "ators": 7425,
      "Ġingen": 7426,
      "itya": 7427,
      "ĠMag": 7428,
      "Ġunst": 7429,
      "ĠCreat": 7430,
      "expect": 7431,
      "Ġaga": 7432,
      "Ġdistribut": 7433,
      "ĠReason": 7434,
      "Ġinvari": 7435,
      "Ġobserved": 7436,
      "Ġsensible": 7437,
      "Ġinteresting": 7438,
      "ĠPranam": 7439,
      "Ġcorrespondence": 7440,
      "ĠProblem": 7441,
      "liminary": 7442,
      "Ġmask": 7443,
      "Veda": 7444,
      "kÄģl": 7445,
      "Ġclarity": 7446,
      "Ġhusband": 7447,
      "Soul": 7448,
      "hist": 7449,
      "rti": 7450,
      "sim": 7451,
      "Ġak": 7452,
      "itarian": 7453,
      "Ġincl": 7454,
      "orable": 7455,
      "ĠMost": 7456,
      "ĠMAR": 7457,
      "Ġwel": 7458,
      "Ġmob": 7459,
      "alled": 7460,
      "ĠYes": 7461,
      "oseidon": 7462,
      "never": 7463,
      "Ġrelapse": 7464,
      "Ġenjoys": 7465,
      "Ġmeets": 7466,
      "Ġcommunal": 7467,
      "Ġskies": 7468,
      "Shall": 7469,
      "Ġvigour": 7470,
      "Ġsavage": 7471,
      "Ġquarrel": 7472,
      "Ġmentioned": 7473,
      "ĠReligion": 7474,
      "Ġhence": 7475,
      "Since": 7476,
      "bly": 7477,
      "ores": 7478,
      "Ġscept": 7479,
      "Ġbitter": 7480,
      "Ġinex": 7481,
      "utter": 7482,
      "Ġrepression": 7483,
      "Ġsth": 7484,
      "Ġstation": 7485,
      "ichard": 7486,
      "quite": 7487,
      "ĠKum": 7488,
      "Ġamid": 7489,
      "ĠJust": 7490,
      "Ġrush": 7491,
      "Ġfaithful": 7492,
      "strugg": 7493,
      "Ġreplied": 7494,
      "intelligence": 7495,
      "ĠModerates": 7496,
      "Ġsacrificial": 7497,
      "Ġantard": 7498,
      "ĠAfterwards": 7499,
      "GA": 7500,
      "Krishna": 7501,
      "io": 7502,
      "iers": 7503,
      "Ġaishwarya": 7504,
      "aterial": 7505,
      "escience": 7506,
      "Ġincons": 7507,
      "Ġfost": 7508,
      "Ġlosing": 7509,
      "ayoga": 7510,
      "Ġsecre": 7511,
      "ested": 7512,
      "ĠNAT": 7513,
      "Ġplastic": 7514,
      "Ġsomeone": 7515,
      "Ġprem": 7516,
      "Ġrelated": 7517,
      "ĠAAR": 7518,
      "ocks": 7519,
      "Ġpreserve": 7520,
      "Ġdevice": 7521,
      "Indra": 7522,
      "ĠHindus": 7523,
      "Ġfruits": 7524,
      "stitution": 7525,
      "Ġinfall": 7526,
      "Ġchaos": 7527,
      "cipient": 7528,
      "build": 7529,
      "Ġnormally": 7530,
      "TO": 7531,
      "cension": 7532,
      "mem": 7533,
      "wild": 7534,
      "Ã¾": 7535,
      "Ġest": 7536,
      "Ġwarm": 7537,
      "animate": 7538,
      "Ġcustom": 7539,
      "Ġdrop": 7540,
      "icious": 7541,
      "lease": 7542,
      "Ġweek": 7543,
      "ĠPath": 7544,
      "aculous": 7545,
      "âĢĿ?": 7546,
      "Ġchain": 7547,
      "rying": 7548,
      "Ġaggreg": 7549,
      "Ġsomewhere": 7550,
      "Ġpret": 7551,
      "avas": 7552,
      "Ġrights": 7553,
      "arks": 7554,
      "ĠZIN": 7555,
      "Ġseparately": 7556,
      "Ġbasic": 7557,
      "Ġmorality": 7558,
      "Ġdependence": 7559,
      "Ġparagraph": 7560,
      "Ġconnect": 7561,
      "Ġethics": 7562,
      "Ġpursue": 7563,
      "ĠMean": 7564,
      "Ġcontradiction": 7565,
      "Ġmountains": 7566,
      "absolute": 7567,
      "Ġremembered": 7568,
      "gives": 7569,
      "Ġinfin": 7570,
      "Ġineffective": 7571,
      "Ġorgans": 7572,
      "Ġasiddhi": 7573,
      "Ġseason": 7574,
      "Ġkin": 7575,
      "ĠNAA": 7576,
      "usa": 7577,
      "emotion": 7578,
      "ĠEgypt": 7579,
      "ĠGo": 7580,
      "ĠWell": 7581,
      "Ġupset": 7582,
      "def": 7583,
      "Ġcontents": 7584,
      "Ġmaterials": 7585,
      "Ġlogistis": 7586,
      "Ġthrows": 7587,
      "Ġthrowing": 7588,
      "ifficulties": 7589,
      "Ġenlighten": 7590,
      "Ġcommercial": 7591,
      "ĠTranscendent": 7592,
      "beginning": 7593,
      "book": 7594,
      "four": 7595,
      "false": 7596,
      "hur": 7597,
      "jut": 7598,
      "Ġakasha": 7599,
      "Ġbore": 7600,
      "Ġmaa": 7601,
      "Ġgro": 7602,
      "Ġud": 7603,
      "Ġselection": 7604,
      "ameless": 7605,
      "ĠBoth": 7606,
      "Ġcomposed": 7607,
      "ĠOp": 7608,
      "Ġsold": 7609,
      "Ġsubmission": 7610,
      "orders": 7611,
      "Ġacute": 7612,
      "Ġpowerfully": 7613,
      "Ġattach": 7614,
      "ĠJE": 7615,
      "Ġflaming": 7616,
      "Ġappo": 7617,
      "pring": 7618,
      "ĠOnce": 7619,
      "Ġtyr": 7620,
      "appro": 7621,
      "Ġminim": 7622,
      "Ġoccasionally": 7623,
      "Ġwinds": 7624,
      "Ġsurroundings": 7625,
      "organised": 7626,
      "ĠMaruts": 7627,
      "Ġthoroughly": 7628,
      "VII": 7629,
      "uated": 7630,
      "Ġmute": 7631,
      "Ġdasya": 7632,
      "Ġnectar": 7633,
      "Ġloud": 7634,
      "Ġmanas": 7635,
      "Ġmanhood": 7636,
      "aved": 7637,
      "Ġhereafter": 7638,
      "haspati": 7639,
      "Ġsensuous": 7640,
      "Ġpeaceful": 7641,
      "Ġ56": 7642,
      "Ġopposites": 7643,
      "Ġlanguages": 7644,
      "Ġboundless": 7645,
      "Ġtrend": 7646,
      "Ġcerem": 7647,
      "appl": 7648,
      "Ġindications": 7649,
      "Ġformerly": 7650,
      "Ġabsorption": 7651,
      "Ġrevolutionary": 7652,
      "Ġpervading": 7653,
      "Ġexaggerated": 7654,
      "Ġprolonged": 7655,
      "Ġimmobile": 7656,
      "ĠBabu": 7657,
      "ĠPurushottama": 7658,
      "IR": 7659,
      "leness": 7660,
      "past": 7661,
      "Ġaver": 7662,
      "Ġsou": 7663,
      "ateness": 7664,
      "erous": 7665,
      "Ġhom": 7666,
      "Ġnaked": 7667,
      "Ġgates": 7668,
      "Ġgathered": 7669,
      "Ġsevere": 7670,
      "ĠRS": 7671,
      "Ġprogramme": 7672,
      "Ġabnormal": 7673,
      "ĠYA": 7674,
      "Ġ197": 7675,
      "Ġadapt": 7676,
      "Ġentitled": 7677,
      "ailing": 7678,
      "ailed": 7679,
      "ertion": 7680,
      "Ġprevents": 7681,
      "Ġmarvellous": 7682,
      "Ġrichness": 7683,
      "Notes": 7684,
      "Ġcrowd": 7685,
      "Ġissues": 7686,
      "Ġwalls": 7687,
      "Ġfifth": 7688,
      "course": 7689,
      "Ġangry": 7690,
      "Draft": 7691,
      "Ġlonely": 7692,
      "PT": 7693,
      "det": 7694,
      "eas": 7695,
      "mom": 7696,
      "pent": 7697,
      "Ġhate": 7698,
      "Ġerect": 7699,
      "leading": 7700,
      "Ġgifts": 7701,
      "osition": 7702,
      "ĠRAI": 7703,
      "ĠOb": 7704,
      "Ġmanage": 7705,
      "thern": 7706,
      "Ġadore": 7707,
      "Ġsuppressed": 7708,
      "Ġpainting": 7709,
      "Ġdraft": 7710,
      "Ġfalling": 7711,
      "Ġdelay": 7712,
      "high": 7713,
      "Ġnegation": 7714,
      "Ġexpand": 7715,
      "Ġabandoned": 7716,
      "Ġquickly": 7717,
      "Ġquantity": 7718,
      "Ġimpartial": 7719,
      "Ġbrahma": 7720,
      "ĠLiterature": 7721,
      "IB": 7722,
      "June": 7723,
      "MI": 7724,
      "fast": 7725,
      "phenomen": 7726,
      "published": 7727,
      "yasa": 7728,
      "Ġie": 7729,
      "Ġdrishti": 7730,
      "otence": 7731,
      "urance": 7732,
      "Ġstatic": 7733,
      "akta": 7734,
      "ĠPublished": 7735,
      "ĠNR": 7736,
      "Ġformless": 7737,
      "Ġdisg": 7738,
      "Ġsubs": 7739,
      "jects": 7740,
      "Ġsheath": 7741,
      "Ġ22": 7742,
      "Ġrup": 7743,
      "Ġendure": 7744,
      "Ġconson": 7745,
      "Ġassume": 7746,
      "pares": 7747,
      "Ġexisted": 7748,
      "Ġsmaller": 7749,
      "understand": 7750,
      "Ġvisions": 7751,
      "Ġbroke": 7752,
      "Ġjournal": 7753,
      "Ġheroic": 7754,
      "ĠBuddhism": 7755,
      "55": 7756,
      "rece": 7757,
      "Ġea": 7758,
      "Ġlift": 7759,
      "ĠSAT": 7760,
      "iles": 7761,
      "ĠPerseus": 7762,
      "ogune": 7763,
      "aud": 7764,
      "rita": 7765,
      "social": 7766,
      "Ġpranic": 7767,
      "Ġprejud": 7768,
      "Ġcommit": 7769,
      "liation": 7770,
      "actions": 7771,
      "Ġdiscrimination": 7772,
      "Ġscul": 7773,
      "Ġhandwritten": 7774,
      "Ġconceived": 7775,
      "Ġrecognition": 7776,
      "ĠBhakti": 7777,
      "Ġdefinitely": 7778,
      "Bec": 7779,
      "Jan": 7780,
      "Was": 7781,
      "Ġfut": 7782,
      "Ġded": 7783,
      "Ġdare": 7784,
      "entions": 7785,
      "Ġrendered": 7786,
      "Ġasking": 7787,
      "adows": 7788,
      "Ġsel": 7789,
      "andam": 7790,
      "odogune": 7791,
      "ilight": 7792,
      "Ġdeleg": 7793,
      "emin": 7794,
      "Ġproposed": 7795,
      "Ġprice": 7796,
      "Ġspaces": 7797,
      "Ġoffers": 7798,
      "Ġpreserved": 7799,
      "Ġdecision": 7800,
      "Ġtreasure": 7801,
      "ĠSocial": 7802,
      "Which": 7803,
      "Ġattainment": 7804,
      "Ġtapasya": 7805,
      "Ġtelepathic": 7806,
      "circum": 7807,
      "Time": 7808,
      "cu": 7809,
      "gmatic": 7810,
      "oqu": 7811,
      "ped": 7812,
      "Ġ]": 7813,
      "Ġinformation": 7814,
      "Ġinconscience": 7815,
      "ications": 7816,
      "ĠSAN": 7817,
      "ĠMove": 7818,
      "ĠNET": 7819,
      "Ġnovel": 7820,
      "ĠViz": 7821,
      "Ġbran": 7822,
      "Ġclash": 7823,
      "Ġsurge": 7824,
      "Ġstrongest": 7825,
      "Ġdiscouraged": 7826,
      "Ġcontinual": 7827,
      "ĠShiva": 7828,
      "Ġpressed": 7829,
      "State": 7830,
      "Ġomnis": 7831,
      "Ġfancy": 7832,
      "ĠDescent": 7833,
      "ĠGerman": 7834,
      "ĠIllusion": 7835,
      "ĠDivinity": 7836,
      "98": 7837,
      "Such": 7838,
      "yl": 7839,
      "hetic": 7840,
      "isl": 7841,
      "Ġfoll": 7842,
      "ĠAC": 7843,
      "Ġreward": 7844,
      "hta": 7845,
      "Ġves": 7846,
      "Ġexal": 7847,
      "ĠPol": 7848,
      "Ġmood": 7849,
      "ogical": 7850,
      "Ġmanu": 7851,
      "ourselves": 7852,
      "ĠInter": 7853,
      "external": 7854,
      "Ġspiritually": 7855,
      "iaeval": 7856,
      "Ġsheer": 7857,
      "Ġmanifestations": 7858,
      "pects": 7859,
      "Ġbeginnings": 7860,
      "Ġpersu": 7861,
      "commun": 7862,
      "Ġdistinguished": 7863,
      "Ġflex": 7864,
      "instrument": 7865,
      "Ġsyllable": 7866,
      "Ġconsummation": 7867,
      "Ġsculpt": 7868,
      "nas": 7869,
      "rul": 7870,
      "tive": 7871,
      "times": 7872,
      "yas": 7873,
      "ĠÃĪ": 7874,
      "Ġaud": 7875,
      "erity": 7876,
      "Ġlof": 7877,
      "ĠIAN": 7878,
      "etc": 7879,
      "ĠMNI": 7880,
      "Ġexclusion": 7881,
      "ivek": 7882,
      "Ġship": 7883,
      "plex": 7884,
      "jective": 7885,
      "tains": 7886,
      "ibilities": 7887,
      "Ġcertainty": 7888,
      "Ġ40": 7889,
      "Ġanima": 7890,
      "Ġproperly": 7891,
      "ottom": 7892,
      "purpose": 7893,
      "Ġobstructed": 7894,
      "surrender": 7895,
      "difficulty": 7896,
      "Ġincapable": 7897,
      "Ġcomprehensive": 7898,
      "Ġdisappoint": 7899,
      "Ġselves": 7900,
      "Kamananda": 7901,
      "Par": 7902,
      "viously": 7903,
      "itect": 7904,
      "Ġspir": 7905,
      "Ġpier": 7906,
      "omaya": 7907,
      "uta": 7908,
      "Ġreform": 7909,
      "Ġnoted": 7910,
      "rule": 7911,
      "Ġneut": 7912,
      "ogy": 7913,
      "ĠFive": 7914,
      "Ġformidable": 7915,
      "Ġdiffer": 7916,
      "Ġclue": 7917,
      "ivided": 7918,
      "ĠAAE": 7919,
      "minded": 7920,
      "Ġpresented": 7921,
      "ĠAsura": 7922,
      "Ġassign": 7923,
      "Ġtender": 7924,
      "Heaven": 7925,
      "Ġuseless": 7926,
      "Ġ48": 7927,
      "Ġinstrumental": 7928,
      "Ġguided": 7929,
      "Ġtrain": 7930,
      "tended": 7931,
      "Ġsolely": 7932,
      "Ġexcite": 7933,
      "Ġdomain": 7934,
      "Ġmillion": 7935,
      "Super": 7936,
      "Ġabundance": 7937,
      "ĠMadras": 7938,
      "ĠCycle": 7939,
      "inous": 7940,
      "isters": 7941,
      "Ġinse": 7942,
      "adox": 7943,
      "ĠSaraswati": 7944,
      "olving": 7945,
      "ests": 7946,
      "Ġlearning": 7947,
      "forth": 7948,
      "Ġexpressive": 7949,
      "struction": 7950,
      "Ġdriving": 7951,
      "passing": 7952,
      "Ġanswers": 7953,
      "Ġbelonging": 7954,
      "ĠProv": 7955,
      "Ġfatigue": 7956,
      "Ġmysterious": 7957,
      "Ġinterfere": 7958,
      "Ġsublime": 7959,
      "FI": 7960,
      "JA": 7961,
      "Vijnana": 7962,
      "iose": 7963,
      "language": 7964,
      "since": 7965,
      "Â©": 7966,
      "Ã³": 7967,
      "Ãº": 7968,
      "inions": 7969,
      "inctions": 7970,
      "Ġpatience": 7971,
      "Ġloyal": 7972,
      "Ġreception": 7973,
      "Ġgard": 7974,
      "ĠBipin": 7975,
      "aints": 7976,
      "ĠCN": 7977,
      "Ġpreliminary": 7978,
      "Ġ46": 7979,
      "partic": 7980,
      "Ġaccident": 7981,
      "ĠMahas": 7982,
      "Ġdealt": 7983,
      "Ġphrases": 7984,
      "Ġfruitful": 7985,
      "Ġdomination": 7986,
      "Ġvanity": 7987,
      "Ġcopy": 7988,
      "Purusha": 7989,
      "ĠGermany": 7990,
      "Ġpreoccupation": 7991,
      "Ġdiversity": 7992,
      "Each": 7993,
      "father": 7994,
      "tri": 7995,
      "takes": 7996,
      "Ġcure": 7997,
      "Ġlap": 7998,
      "ĠSacrifice": 7999,
      "Ġconcess": 8000,
      "ams": 8001,
      "illes": 8002,
      "ĠMO": 8003,
      "rier": 8004,
      "Ġalive": 8005,
      "Ġrank": 8006,
      "ĠCAN": 8007,
      "Ġabiding": 8008,
      "Ġasser": 8009,
      "religious": 8010,
      "Ġmultiple": 8011,
      "Ġswiftness": 8012,
      "Ġcompulsion": 8013,
      "Ġruns": 8014,
      "Ġobserving": 8015,
      "Vedic": 8016,
      "unjab": 8017,
      "eur": 8018,
      "together": 8019,
      "uv": 8020,
      "itations": 8021,
      "Ġfed": 8022,
      "ulent": 8023,
      "Ġmember": 8024,
      "outward": 8025,
      "forced": 8026,
      "ensive": 8027,
      "ĠForm": 8028,
      "Ġorders": 8029,
      "Ġflu": 8030,
      "Ġrock": 8031,
      "tioch": 8032,
      "Ġobscur": 8033,
      "Ġ50": 8034,
      "icked": 8035,
      "ĠYogi": 8036,
      "Ġappropri": 8037,
      "experiences": 8038,
      "Ġdegrad": 8039,
      "Ġcovering": 8040,
      "support": 8041,
      "Ġautomatically": 8042,
      "ĠRamakrishna": 8043,
      "Ġclimb": 8044,
      "53": 8045,
      "Bh": 8046,
      "LL": 8047,
      "future": 8048,
      "hayas": 8049,
      "pires": 8050,
      "tes": 8051,
      "Ġdeity": 8052,
      "ĠPri": 8053,
      "ĠBull": 8054,
      "aining": 8055,
      "ĠRama": 8056,
      "ĠKshat": 8057,
      "Ġindication": 8058,
      "Ġindifferent": 8059,
      "Ġrealm": 8060,
      "Ġillus": 8061,
      "Ġbelieved": 8062,
      "erving": 8063,
      "Ġabsolut": 8064,
      "Ġsuffered": 8065,
      "Ġintuitions": 8066,
      "Ġ57": 8067,
      "Once": 8068,
      "Ġrepresentation": 8069,
      "Ġidentified": 8070,
      "Ġdominated": 8071,
      "Ġcompromise": 8072,
      "Ġmutable": 8073,
      "Ġpermanently": 8074,
      "Ġmiraculous": 8075,
      "Ġclouds": 8076,
      "Ġgradually": 8077,
      "Ġsummits": 8078,
      "Ġtreatment": 8079,
      "Ġaspirations": 8080,
      "Ġprosper": 8081,
      "secration": 8082,
      "ĠIntelligence": 8083,
      "rupulous": 8084,
      "Ġanguish": 8085,
      "41": 8086,
      "Somet": 8087,
      "Tapas": 8088,
      "bod": 8089,
      "heaven": 8090,
      "nds": 8091,
      "onies": 8092,
      "Ġbhava": 8093,
      "Ġhide": 8094,
      "Ġgh": 8095,
      "Ġasks": 8096,
      "Ġsec": 8097,
      "illa": 8098,
      "ĠâĢĺ": 8099,
      "ĠMilt": 8100,
      "aclit": 8101,
      "Ġdoctrine": 8102,
      "abor": 8103,
      "centre": 8104,
      "Ġsynthesis": 8105,
      "Ġrecovered": 8106,
      "Ġcontinent": 8107,
      "Ġrefused": 8108,
      "ASLA": 8109,
      "ONE": 8110,
      "Ġstruggles": 8111,
      "Ġplease": 8112,
      "Ġdoubts": 8113,
      "Ġsunlight": 8114,
      "Ġconsideration": 8115,
      "ĠNeither": 8116,
      "Ġrunning": 8117,
      "Ġappreciation": 8118,
      "ĠPerhaps": 8119,
      "interested": 8120,
      "Ġtechnique": 8121,
      "entirely": 8122,
      "Ġstimul": 8123,
      "ohn": 8124,
      "aclitus": 8125,
      "ASLAUG": 8126,
      "CLE": 8127,
      "GN": 8128,
      "Sub": 8129,
      "Two": 8130,
      "basis": 8131,
      "tam": 8132,
      "eric": 8133,
      "Ġwond": 8134,
      "Ġdust": 8135,
      "Ġnid": 8136,
      "otes": 8137,
      "irls": 8138,
      "hero": 8139,
      "ĠSha": 8140,
      "Ġconscient": 8141,
      "ĠMen": 8142,
      "ĠMEA": 8143,
      "Ġunborn": 8144,
      "ĠFinally": 8145,
      "unction": 8146,
      "Ġcling": 8147,
      "comb": 8148,
      "Ġblow": 8149,
      "prot": 8150,
      "Ġrepose": 8151,
      "Ġwrites": 8152,
      "Ġdesired": 8153,
      "Ġdetermining": 8154,
      "Ġprofit": 8155,
      "Ġmistakes": 8156,
      "Ġyearning": 8157,
      "Ġthrone": 8158,
      "Letters": 8159,
      "speech": 8160,
      "Ġexceeds": 8161,
      "Ġomnipotent": 8162,
      "indeed": 8163,
      "Ġsubsequent": 8164,
      "ĠMystic": 8165,
      "Ġarbitrary": 8166,
      "Ġbrihat": 8167,
      "pervading": 8168,
      "Because": 8169,
      "AUS": 8170,
      "MU": 8171,
      "Tis": 8172,
      "cover": 8173,
      "volution": 8174,
      "Ġ/": 8175,
      "itating": 8176,
      "arly": 8177,
      "Ġtom": 8178,
      "Ġdro": 8179,
      "Ġgate": 8180,
      "iri": 8181,
      "rap": 8182,
      "ĠNO": 8183,
      "rian": 8184,
      "uthsa": 8185,
      "Ġworker": 8186,
      "iege": 8187,
      "acters": 8188,
      "comp": 8189,
      "Ġbloom": 8190,
      "erged": 8191,
      "Ġsphere": 8192,
      "ĠATS": 8193,
      "Ġrestra": 8194,
      "iph": 8195,
      "enger": 8196,
      "Ġsimultaneous": 8197,
      "Ġretire": 8198,
      "Ġremaining": 8199,
      "Ġinfinitely": 8200,
      "although": 8201,
      "Ġaffairs": 8202,
      "longer": 8203,
      "Ġsorts": 8204,
      "Ġfathers": 8205,
      "Ġincluding": 8206,
      "Ġattended": 8207,
      "Ġassimilation": 8208,
      "moving": 8209,
      "60": 8210,
      "Come": 8211,
      "Mar": 8212,
      "Pondicherry": 8213,
      "aha": 8214,
      "wind": 8215,
      "za": 8216,
      "return": 8217,
      "atya": 8218,
      "Ġcave": 8219,
      "utta": 8220,
      "ĠMT": 8221,
      "ĠRep": 8222,
      "Ġneck": 8223,
      "ĠReview": 8224,
      "ails": 8225,
      "INE": 8226,
      "Ġreturning": 8227,
      "Ġfoe": 8228,
      "Ġdecline": 8229,
      "Ġsuperiority": 8230,
      "Ġfortune": 8231,
      "Ġbusy": 8232,
      "Ġresponsibility": 8233,
      "Ġstrenuous": 8234,
      "Ġstopped": 8235,
      "Ġhitherto": 8236,
      "ĠUrvasie": 8237,
      "Cl": 8238,
      "dynam": 8239,
      "fess": 8240,
      "hale": 8241,
      "reed": 8242,
      "Ġbeneath": 8243,
      "especially": 8244,
      "Ġsequ": 8245,
      "ĠMEN": 8246,
      "ĠBankim": 8247,
      "ĠCour": 8248,
      "ieves": 8249,
      "ossibility": 8250,
      "becoming": 8251,
      "whatever": 8252,
      "Ġinsight": 8253,
      "Ġreport": 8254,
      "Ġgoods": 8255,
      "worth": 8256,
      "Ġfreer": 8257,
      "Ġgrat": 8258,
      "Ġpainful": 8259,
      "Ã¡n": 8260,
      "Ġmasses": 8261,
      "cluding": 8262,
      "Ġfamous": 8263,
      "Ġmechanism": 8264,
      "cution": 8265,
      "ĠParadise": 8266,
      "azing": 8267,
      "Ġtraditional": 8268,
      "Ġfeatures": 8269,
      "break": 8270,
      "Ġperpetual": 8271,
      "ĠAchilles": 8272,
      "ĠCreator": 8273,
      "Ġvessel": 8274,
      "First": 8275,
      "Government": 8276,
      "Him": 8277,
      "HAR": 8278,
      "Ph": 8279,
      "firm": 8280,
      "Ä®": 8281,
      "Ġtempt": 8282,
      "itious": 8283,
      "eries": 8284,
      "Ġbed": 8285,
      "Ġbrahman": 8286,
      "Ġborne": 8287,
      "Ġfaint": 8288,
      "Ġcried": 8289,
      "Ġcertitude": 8290,
      "Ġpushed": 8291,
      "Ġdish": 8292,
      "Ġecho": 8293,
      "utt": 8294,
      "owered": 8295,
      "Ġascension": 8296,
      "mentality": 8297,
      "iverer": 8298,
      "Ġunified": 8299,
      "usual": 8300,
      "ĠRight": 8301,
      "ĠRichard": 8302,
      "ĠCAA": 8303,
      "ĠHouse": 8304,
      "Ġchant": 8305,
      "Ġimpro": 8306,
      "Ġdespot": 8307,
      "Ġpreference": 8308,
      "quality": 8309,
      "Ġlovely": 8310,
      "Ġfactor": 8311,
      "ĠSuk": 8312,
      "Ġreview": 8313,
      "anything": 8314,
      "subtle": 8315,
      "Ġbrood": 8316,
      "Ġdescended": 8317,
      "ĠGreeks": 8318,
      "liter": 8319,
      "Ġacquire": 8320,
      "Ġrapturous": 8321,
      "Ġsexual": 8322,
      "Ġequival": 8323,
      "Ã¨d": 8324,
      "Ġreferred": 8325,
      "Sa": 8326,
      "Ġinform": 8327,
      "Ġpack": 8328,
      "ots": 8329,
      "ĠSon": 8330,
      "Ġconvey": 8331,
      "Ġva": 8332,
      "Ġsukshma": 8333,
      "Ġdepressed": 8334,
      "Ġworshi": 8335,
      "ĠGok": 8336,
      "aging": 8337,
      "Ġresort": 8338,
      "Ġtransmut": 8339,
      "Ġlonging": 8340,
      "Ġrud": 8341,
      "Ġheads": 8342,
      "Ġdelusion": 8343,
      "Ġnumbers": 8344,
      "Ġevolves": 8345,
      "Ġassociations": 8346,
      "Ġassumes": 8347,
      "Ġsustained": 8348,
      "Ġunique": 8349,
      "ĠJivatman": 8350,
      "Ġremedy": 8351,
      "impulse": 8352,
      "Ġcrooked": 8353,
      "oducing": 8354,
      "July": 8355,
      "PER": 8356,
      "YO": 8357,
      "rich": 8358,
      "uine": 8359,
      "Ġfing": 8360,
      "Ġparent": 8361,
      "Ġlad": 8362,
      "rade": 8363,
      "Ġselect": 8364,
      "ĠThee": 8365,
      "ĠPoseidon": 8366,
      "Ġshout": 8367,
      "astrous": 8368,
      "Ġ1919": 8369,
      "create": 8370,
      "Ġafaa": 8371,
      "ergence": 8372,
      "ocation": 8373,
      "Ġignore": 8374,
      "Ġprogression": 8375,
      "Ġinvasion": 8376,
      "ĠUnivers": 8377,
      "ĠÃĢ": 8378,
      "ĠOrig": 8379,
      "Ġirrational": 8380,
      "Ġvictim": 8381,
      "Ġhistorical": 8382,
      "ĠGreece": 8383,
      "humanity": 8384,
      "Ġheroes": 8385,
      "modern": 8386,
      "Ġprivate": 8387,
      "Ġaccurate": 8388,
      "Ġreduced": 8389,
      "ĠMahomedan": 8390,
      "ĠRussia": 8391,
      "Ġwarrior": 8392,
      "Ġremnants": 8393,
      "vol": 8394,
      "Ġtro": 8395,
      "ĠAut": 8396,
      "Ġsup": 8397,
      "ĠRudra": 8398,
      "ĠRodogune": 8399,
      "soci": 8400,
      "ĠKnow": 8401,
      "Ġfluct": 8402,
      "Ġdiscourage": 8403,
      "Ġstatements": 8404,
      "Ġgrass": 8405,
      "Ġsuperst": 8406,
      "oubted": 8407,
      "namaya": 8408,
      "Ġanimals": 8409,
      "Ġcrus": 8410,
      "Ġirresist": 8411,
      "Ġattacked": 8412,
      "Äģni": 8413,
      "Ġpreceding": 8414,
      "Ġfragmentary": 8415,
      "ĠAmerica": 8416,
      "Have": 8417,
      "Lord": 8418,
      "POL": 8419,
      "bro": 8420,
      "bha": 8421,
      "mot": 8422,
      "whel": 8423,
      "Ġsnow": 8424,
      "Ġwomb": 8425,
      "Ġinclude": 8426,
      "Ġcris": 8427,
      "least": 8428,
      "ĠTri": 8429,
      "Ġsecurity": 8430,
      "ĠNar": 8431,
      "Ġunto": 8432,
      "astra": 8433,
      "Ġarrog": 8434,
      "pleasure": 8435,
      "Ġpoison": 8436,
      "Ġprin": 8437,
      "Ġagitation": 8438,
      "Ġprec": 8439,
      "posal": 8440,
      "passed": 8441,
      "Ġcolours": 8442,
      "ROME": 8443,
      "Ġlisten": 8444,
      "Death": 8445,
      "ĠImmortal": 8446,
      "Ġlargest": 8447,
      "Ġsubstitute": 8448,
      "Ġromantic": 8449,
      "Ġremoval": 8450,
      "ANDROME": 8451,
      "ANDROMEDA": 8452,
      "KI": 8453,
      "Pass": 8454,
      "affect": 8455,
      "uh": 8456,
      "vis": 8457,
      "Ġtheories": 8458,
      "recon": 8459,
      "Ġbottom": 8460,
      "Ġdrew": 8461,
      "icing": 8462,
      "Ġlying": 8463,
      "ĠTR": 8464,
      "ĠSS": 8465,
      "ĠPersonal": 8466,
      "Ġunve": 8467,
      "ĠHorse": 8468,
      "ondon": 8469,
      "ĠVoid": 8470,
      "ĠKe": 8471,
      "Ġindu": 8472,
      "exceed": 8473,
      "actory": 8474,
      "adeva": 8475,
      "ernagore": 8476,
      "Ġcleave": 8477,
      "Ġyearn": 8478,
      "Ġattempting": 8479,
      "Ġimperfections": 8480,
      "Ġmonarch": 8481,
      "Ġcommunion": 8482,
      "Ġ1926": 8483,
      "seek": 8484,
      "Ġintuitional": 8485,
      "Ġlords": 8486,
      "Ġpotent": 8487,
      "Ġenvis": 8488,
      "transcend": 8489,
      "happy": 8490,
      "Ġauthorities": 8491,
      "Ġintimately": 8492,
      "Ġtemporal": 8493,
      "European": 8494,
      "YDA": 8495,
      "want": 8496,
      "Ġtaught": 8497,
      "Ġsession": 8498,
      "Ġinactive": 8499,
      "Ġtown": 8500,
      "ĠgT": 8501,
      "ĠTant": 8502,
      "ĠSleep": 8503,
      "ĠMight": 8504,
      "ros": 8505,
      "ĠNevertheless": 8506,
      "Ġunite": 8507,
      "ĠCT": 8508,
      "Ġoutcome": 8509,
      "Ġdismiss": 8510,
      "Ġfee": 8511,
      "Äģl": 8512,
      "Ġagent": 8513,
      "ĠBecause": 8514,
      "Ġswall": 8515,
      "paper": 8516,
      "Ġguiding": 8517,
      "Ġmaintenance": 8518,
      "Ġdeeply": 8519,
      "Ġsolitary": 8520,
      "Ġimperishable": 8521,
      "Ġtwice": 8522,
      "Ġsitting": 8523,
      "justice": 8524,
      "Ġvigil": 8525,
      "Ġemptiness": 8526,
      "animity": 8527,
      "Ġinstitution": 8528,
      "mighty": 8529,
      "Ġintervene": 8530,
      "Ġincompat": 8531,
      "Ġeliminated": 8532,
      "ĠCreation": 8533,
      "POLYDA": 8534,
      "POLYDAON": 8535,
      "Pl": 8536,
      "ere": 8537,
      "foot": 8538,
      "gar": 8539,
      "lines": 8540,
      "itated": 8541,
      "Ġcrim": 8542,
      "ican": 8543,
      "icians": 8544,
      "ashes": 8545,
      "uration": 8546,
      "ĠSince": 8547,
      "ĠPunjab": 8548,
      "Ġuniform": 8549,
      "resses": 8550,
      "unately": 8551,
      "ĠLÄ°ST": 8552,
      "conception": 8553,
      "Ġimprove": 8554,
      "ully": 8555,
      "whose": 8556,
      "evident": 8557,
      "Ġreader": 8558,
      "Ġemerging": 8559,
      "Ġphilosophies": 8560,
      "Ġinsisted": 8561,
      "Ġsuspended": 8562,
      "Ġweapon": 8563,
      "Ġsecrecy": 8564,
      "42": 8565,
      "tue": 8566,
      "Ġx": 8567,
      "Ġwing": 8568,
      "Ġere": 8569,
      "Ġlux": 8570,
      "stra": 8571,
      "ĠTur": 8572,
      "Ġya": 8573,
      "ussion": 8574,
      "ĠOut": 8575,
      "Ġforming": 8576,
      "ĠVayu": 8577,
      "Ġlean": 8578,
      "assora": 8579,
      "Ġrealms": 8580,
      "Ġrealisations": 8581,
      "ĠAnother": 8582,
      "Ġpsycho": 8583,
      "gnant": 8584,
      "Ġconsid": 8585,
      "Ġdetermination": 8586,
      "Ġidentification": 8587,
      "Ġresisted": 8588,
      "worlds": 8589,
      "ANICE": 8590,
      "Ġgrandiose": 8591,
      "ĠIntuition": 8592,
      "continued": 8593,
      "Ġhyp": 8594,
      "embra": 8595,
      "Ġeducated": 8596,
      "ĠPhilology": 8597,
      "Ġavailable": 8598,
      "moment": 8599,
      "Gu": 8600,
      "LES": 8601,
      "kam": 8602,
      "mir": 8603,
      "mand": 8604,
      "Ġtired": 8605,
      "inated": 8606,
      "Ġbi": 8607,
      "Ġcir": 8608,
      "Ġdign": 8609,
      "omy": 8610,
      "ĠTamil": 8611,
      "cile": 8612,
      "ĠPersonality": 8613,
      "Ġcomment": 8614,
      "Ġrasa": 8615,
      "ĠHel": 8616,
      "Ġoutlook": 8617,
      "ĠVis": 8618,
      "autiful": 8619,
      "Ġbeloved": 8620,
      "Ġpractise": 8621,
      "Ġdevoted": 8622,
      "Ġinterested": 8623,
      "Ġdeclare": 8624,
      "Ġaffection": 8625,
      "Existence": 8626,
      "Ġtongues": 8627,
      "Ġdemocracy": 8628,
      "Ġdualities": 8629,
      "Ġambition": 8630,
      "Ġadequate": 8631,
      "Ġvehement": 8632,
      "ĠKumar": 8633,
      "Ġtomorrow": 8634,
      "While": 8635,
      "bour": 8636,
      "Ġ+": 8637,
      "ndranath": 8638,
      "Ġinanimate": 8639,
      "ancient": 8640,
      "oring": 8641,
      "aspiration": 8642,
      "Ġbewild": 8643,
      "Ġreaching": 8644,
      "ayam": 8645,
      "amata": 8646,
      "vert": 8647,
      "Ġrhy": 8648,
      "ĠOM": 8649,
      "ĠCan": 8650,
      "Ġjail": 8651,
      "Ġafar": 8652,
      "Ġmentally": 8653,
      "Ġmeanings": 8654,
      "Ġelev": 8655,
      "Ġsubjected": 8656,
      "Ġprogressively": 8657,
      "ĠBeyond": 8658,
      "Ġaccepting": 8659,
      "strous": 8660,
      "little": 8661,
      "pothes": 8662,
      "Ġexerc": 8663,
      "Ġholy": 8664,
      "ĠStatesman": 8665,
      "Ġrestricted": 8666,
      "Ġaccompanied": 8667,
      "eousness": 8668,
      "upendous": 8669,
      "ares": 8670,
      "dream": 8671,
      "pie": 8672,
      "Ġtexts": 8673,
      "Ġao": 8674,
      "Ġsar": 8675,
      "Ġwrest": 8676,
      "Ġhue": 8677,
      "Ġhung": 8678,
      "Ġgame": 8679,
      "Ġhaste": 8680,
      "inev": 8681,
      "ĠDa": 8682,
      "aghim": 8683,
      "Ġdisp": 8684,
      "beings": 8685,
      "Ġcontempt": 8686,
      "Ġclot": 8687,
      "whom": 8688,
      "Ġblaze": 8689,
      "Ġpurifying": 8690,
      "ĠATE": 8691,
      "Ġdeathless": 8692,
      "ĠAEI": 8693,
      "ĠAATA": 8694,
      "Ġexcuse": 8695,
      "Ġpotentiality": 8696,
      "Ġpotentialities": 8697,
      "Ġculmination": 8698,
      "Ġlaugh": 8699,
      "ĠDepart": 8700,
      "ĠGokhale": 8701,
      "Every": 8702,
      "Hind": 8703,
      "Upanishad": 8704,
      "ho": 8705,
      "ja": 8706,
      "jour": 8707,
      "oice": 8708,
      "Ġble": 8709,
      "Ġbatt": 8710,
      "Ġinn": 8711,
      "Ġhath": 8712,
      "asurable": 8713,
      "imperfect": 8714,
      "Ġgrop": 8715,
      "ĠSAA": 8716,
      "ĠSanny": 8717,
      "Ġstern": 8718,
      "Ġvic": 8719,
      "ami": 8720,
      "ĠPand": 8721,
      "ĠCl": 8722,
      "Ġshore": 8723,
      "Ġdisastrous": 8724,
      "Ġprince": 8725,
      "ĠJohn": 8726,
      "Ġunderlying": 8727,
      "ending": 8728,
      "Ġsuppl": 8729,
      "ĠRebirth": 8730,
      "liest": 8731,
      "Ġessay": 8732,
      "Ġstruck": 8733,
      "philosop": 8734,
      "Ġorganise": 8735,
      "Ġnearness": 8736,
      "Shakti": 8737,
      "ĠParabrahman": 8738,
      "Ġconstructed": 8739,
      "Ġhoriz": 8740,
      "Ġvibration": 8741,
      "Ġsaved": 8742,
      "Ġsurprising": 8743,
      "Ġhouses": 8744,
      "Earth": 8745,
      "isite": 8746,
      "Ġfathom": 8747,
      "eda": 8748,
      "Ġlands": 8749,
      "Ġlapse": 8750,
      "ĠgN": 8751,
      "Ġvac": 8752,
      "Ġhered": 8753,
      "Ġtrick": 8754,
      "Ġtransfig": 8755,
      "Ġ1938": 8756,
      "Ġoffice": 8757,
      "Ġdelightful": 8758,
      "Ġproduces": 8759,
      "ALA": 8760,
      "thoughts": 8761,
      "ĠSyria": 8762,
      "writing": 8763,
      "Ġjoined": 8764,
      "Ġsurrounding": 8765,
      "Ġtranquil": 8766,
      "ĠSometimes": 8767,
      "Supermind": 8768,
      ",âĢĶ": 8769,
      "See": 8770,
      "cult": 8771,
      "did": 8772,
      "specially": 8773,
      "trikaldrishti": 8774,
      "Ġomitted": 8775,
      "onial": 8776,
      "era": 8777,
      "Ġinno": 8778,
      "Ġthin": 8779,
      "utation": 8780,
      "start": 8781,
      "ĠBody": 8782,
      "estial": 8783,
      "perhaps": 8784,
      "ĠCur": 8785,
      "ĠChild": 8786,
      "ĠGI": 8787,
      "ĠGood": 8788,
      "Ġchit": 8789,
      "Ġarg": 8790,
      "hib": 8791,
      "activities": 8792,
      "Ġrelief": 8793,
      "Ġsynthe": 8794,
      "ĠSecond": 8795,
      "Through": 8796,
      "Ġ33": 8797,
      "Ġmaterialistic": 8798,
      "Ġhappening": 8799,
      "Ġmodification": 8800,
      "prov": 8801,
      "ashakti": 8802,
      "guard": 8803,
      "brought": 8804,
      "relation": 8805,
      "Ġparadox": 8806,
      "Ġchooses": 8807,
      "regular": 8808,
      "Ġlegitimate": 8809,
      "Ġrecurrent": 8810,
      "myst": 8811,
      "Ġcomplexity": 8812,
      "mastery": 8813,
      "Ġcherished": 8814,
      "Ap": 8815,
      "Dream": 8816,
      "PRI": 8817,
      "house": 8818,
      "sound": 8819,
      "Ġsits": 8820,
      "alone": 8821,
      "Ġinade": 8822,
      "Ġnine": 8823,
      "Ġrecept": 8824,
      "ĠIIT": 8825,
      "imental": 8826,
      "Ġstan": 8827,
      "among": 8828,
      "ĠBassora": 8829,
      "Ġatom": 8830,
      "rush": 8831,
      "acc": 8832,
      "ĠCow": 8833,
      "ĠVyasa": 8834,
      "bear": 8835,
      "Ġindulgence": 8836,
      "Ġdevelopments": 8837,
      "Ġdistinctions": 8838,
      "ĠvijÃ±Äģna": 8839,
      "ING": 8840,
      "ĠEuropeans": 8841,
      "partial": 8842,
      "Ġdestined": 8843,
      "Ġreadily": 8844,
      "ĠAPE": 8845,
      "ĠEditor": 8846,
      "seeking": 8847,
      "Ġsolitude": 8848,
      "Ġinstinctive": 8849,
      "Ġcompel": 8850,
      "Ġincludes": 8851,
      "Ġgradual": 8852,
      "consider": 8853,
      "dhÄģ": 8854,
      "ĠWritten": 8855,
      "animal": 8856,
      "Ġpunishment": 8857,
      "hendra": 8858,
      "Ġdeliberate": 8859,
      "ĠScripture": 8860,
      "Ġadopted": 8861,
      "Ġpuissant": 8862,
      "Ġarchitect": 8863,
      "Many": 8864,
      "bell": 8865,
      "non": 8866,
      "name": 8867,
      "Ġcel": 8868,
      "Ġpus": 8869,
      "Ġdated": 8870,
      "Ġduality": 8871,
      "stands": 8872,
      "Ġstated": 8873,
      "gel": 8874,
      "Ġallows": 8875,
      "Ġcommentary": 8876,
      "ĠRupa": 8877,
      "Ġwilled": 8878,
      "ĠFriend": 8879,
      "Ġabroad": 8880,
      "Ġdisintegr": 8881,
      "Ġsubd": 8882,
      "taining": 8883,
      "Äģsy": 8884,
      "Ġpeaks": 8885,
      "Ġearn": 8886,
      "ifestation": 8887,
      "Ġrestored": 8888,
      "Ġdiscrimin": 8889,
      "INI": 8890,
      "Ġ1900": 8891,
      "Ġqa": 8892,
      "Ġlabours": 8893,
      "apparent": 8894,
      "Ġconstructions": 8895,
      "Ġsimilarly": 8896,
      "Ġimplies": 8897,
      "hearted": 8898,
      "Ġwithdrawal": 8899,
      "Ġepithet": 8900,
      "Äģdhi": 8901,
      "ĠPanis": 8902,
      "ĠJapan": 8903,
      "discipline": 8904,
      "ivekananda": 8905,
      "66": 8906,
      "Can": 8907,
      "DUTTA": 8908,
      "bility": 8909,
      "case": 8910,
      "eus": 8911,
      "pol": 8912,
      "iser": 8913,
      "Ġsaint": 8914,
      "icer": 8915,
      "asi": 8916,
      "ĠTim": 8917,
      "Ġhell": 8918,
      "ĠPO": 8919,
      "ĠBel": 8920,
      "ĠOff": 8921,
      "ĠItaly": 8922,
      "Ġard": 8923,
      "death": 8924,
      "Ġfever": 8925,
      "ĠGodÄı": 8926,
      "close": 8927,
      "avi": 8928,
      "Ġpragmatic": 8929,
      "Ġkindled": 8930,
      "ĠAII": 8931,
      "Ġsmarana": 8932,
      "Ġdivisions": 8933,
      "Another": 8934,
      "Ġwidely": 8935,
      "waita": 8936,
      "elected": 8937,
      "Ġperceives": 8938,
      "Ġwandering": 8939,
      "ineteenth": 8940,
      "ĠVritra": 8941,
      "Ġaverage": 8942,
      "ĠMilton": 8943,
      "51": 8944,
      "Facts": 8945,
      "Has": 8946,
      "MOC": 8947,
      "Scene": 8948,
      "dire": 8949,
      "rates": 8950,
      "sadh": 8951,
      "taking": 8952,
      "touch": 8953,
      "van": 8954,
      "anj": 8955,
      "ĠmA": 8956,
      "Ġpause": 8957,
      "ĠToday": 8958,
      "ivable": 8959,
      "ldom": 8960,
      "ameter": 8961,
      "ĠPers": 8962,
      "ĠHarmony": 8963,
      "ĠEgo": 8964,
      "Ġshakti": 8965,
      "ĠGa": 8966,
      "ellow": 8967,
      "ritam": 8968,
      "teen": 8969,
      "ANTI": 8970,
      "ĠAny": 8971,
      "ĠSrijut": 8972,
      "Ġrests": 8973,
      "Ġoppose": 8974,
      "ĠConvention": 8975,
      "ucid": 8976,
      "proper": 8977,
      "Ġwanting": 8978,
      "Ġserved": 8979,
      "Ġcoloured": 8980,
      "Ġadmir": 8981,
      "Ġcatch": 8982,
      "Ġbinding": 8983,
      "Ġculmin": 8984,
      "merely": 8985,
      "Ġperilous": 8986,
      "ÅĽvara": 8987,
      "accompl": 8988,
      "Ġmagnificent": 8989,
      "Ġavoided": 8990,
      "MOCLES": 8991,
      "06": 8992,
      "harmony": 8993,
      "ming": 8994,
      "ners": 8995,
      "obe": 8996,
      "âĤ": 8997,
      "Ġscre": 8998,
      "anth": 8999,
      "Ġthirst": 9000,
      "otic": 9001,
      "ĠSAI": 9002,
      "Ġdecre": 9003,
      "Ġdeals": 9004,
      "ĠPET": 9005,
      "Ġkn": 9006,
      "Ġkamananda": 9007,
      "elve": 9008,
      "Ġbrute": 9009,
      "prehend": 9010,
      "intuition": 9011,
      "Ġnowhere": 9012,
      "Ġpurusa": 9013,
      "Ġkindred": 9014,
      "tiary": 9015,
      "liament": 9016,
      "Ġaae": 9017,
      "uga": 9018,
      "Ġsetting": 9019,
      "Ġsignificances": 9020,
      "Ġapproaching": 9021,
      "Ġdisappeared": 9022,
      "Ġshowed": 9023,
      "....": 9024,
      "Ġconstitutes": 9025,
      "developed": 9026,
      "Ġcharacteristics": 9027,
      "ĠHowever": 9028,
      "Ġpersistently": 9029,
      "Ġshaped": 9030,
      "Ġconflicting": 9031,
      "Ġwithdrawn": 9032,
      "separate": 9033,
      "áº¸": 9034,
      "Ġwalking": 9035,
      "Ġadventure": 9036,
      "Ġvillage": 9037,
      "âĤ¬": 9038,
      "Bar": 9039,
      "Gree": 9040,
      "Ignorance": 9041,
      "NS": 9042,
      "oof": 9043,
      "Ġpouring": 9044,
      "Ġthread": 9045,
      "Ġtoler": 9046,
      "asin": 9047,
      "Ġnom": 9048,
      "idy": 9049,
      "ivial": 9050,
      "adha": 9051,
      "Ġselected": 9052,
      "nesses": 9053,
      "ante": 9054,
      "Ġrhet": 9055,
      "idel": 9056,
      "ĠDr": 9057,
      "ourge": 9058,
      "agn": 9059,
      "ignant": 9060,
      "ATE": 9061,
      "Ġundergo": 9062,
      "ĠSeven": 9063,
      "Ġspoil": 9064,
      "Ġrecovery": 9065,
      "knowing": 9066,
      "rades": 9067,
      "Ġoppressed": 9068,
      "ĠPurur": 9069,
      "Ġtrace": 9070,
      "Ġ58": 9071,
      "ĠBengalee": 9072,
      "Ġdecay": 9073,
      "understood": 9074,
      "Ġmedic": 9075,
      "Ġdefective": 9076,
      "THA": 9077,
      "element": 9078,
      "Ġadmirable": 9079,
      "Ġfairly": 9080,
      "araja": 9081,
      "difficulties": 9082,
      "Ġcompanion": 9083,
      "Ġcycle": 9084,
      "Ġassertion": 9085,
      "Ġconventional": 9086,
      "Ġexalted": 9087,
      "coll": 9088,
      "don": 9089,
      "gon": 9090,
      "ule": 9091,
      "why": 9092,
      "Ġinaction": 9093,
      "Ġfountain": 9094,
      "Ġnerve": 9095,
      "ĠAge": 9096,
      "ĠIP": 9097,
      "Ġconscience": 9098,
      "odox": 9099,
      "cha": 9100,
      "Ġhasten": 9101,
      "Ġshake": 9102,
      "Ġhers": 9103,
      "apa": 9104,
      "Ġimposes": 9105,
      "intuitive": 9106,
      "Ġembody": 9107,
      "Ġended": 9108,
      "Ġgenuine": 9109,
      "Ġdevote": 9110,
      "Ġcool": 9111,
      "Ġallowing": 9112,
      "Whatever": 9113,
      "Ġshowing": 9114,
      "Ġcivilised": 9115,
      "transformation": 9116,
      "OLAUS": 9117,
      "Ġsecured": 9118,
      "Ġbrothers": 9119,
      "Ġcomparison": 9120,
      "Ġpitch": 9121,
      "Ġaston": 9122,
      "Ġphysi": 9123,
      "numerable": 9124,
      "Ġimprisoned": 9125,
      "embracing": 9126,
      "Great": 9127,
      "Look": 9128,
      "best": 9129,
      "mult": 9130,
      "nical": 9131,
      "ĠaS": 9132,
      "nding": 9133,
      "Ġshed": 9134,
      "encing": 9135,
      "Ġcam": 9136,
      "icence": 9137,
      "Ġet": 9138,
      "Ġlod": 9139,
      "Ġlady": 9140,
      "stead": 9141,
      "ĠAaaa": 9142,
      "Ġrely": 9143,
      "ĠTw": 9144,
      "Ġsemi": 9145,
      "ĠPEA": 9146,
      "usually": 9147,
      "quire": 9148,
      "ĠVal": 9149,
      "plete": 9150,
      "Ġdiscomfort": 9151,
      "Ġimpersonality": 9152,
      "Ġsomewhat": 9153,
      "Ġprepares": 9154,
      "Ġdetachment": 9155,
      "Ġextinction": 9156,
      "Ġgrave": 9157,
      "Ġconceal": 9158,
      "Ġaddress": 9159,
      "Ġmediaeval": 9160,
      "Ġpromised": 9161,
      "velling": 9162,
      "atustaya": 9163,
      "Ġgrandeur": 9164,
      "ĠChandernagore": 9165,
      "Ġrequired": 9166,
      "Ġexecution": 9167,
      "Ġcounter": 9168,
      "struggle": 9169,
      "mes": 9170,
      "mass": 9171,
      "Ġ$": 9172,
      "Ġbull": 9173,
      "Ġinquiry": 9174,
      "lley": 9175,
      "search": 9176,
      "imately": 9177,
      "ĠSte": 9178,
      "Ġstupendous": 9179,
      "cils": 9180,
      "estic": 9181,
      "ateg": 9182,
      "ump": 9183,
      "opening": 9184,
      "Ġarist": 9185,
      "Ġdisregard": 9186,
      "Ġ1950": 9187,
      "issance": 9188,
      "Ġhelping": 9189,
      "Ġcorp": 9190,
      "Ġsecretly": 9191,
      "Ġguides": 9192,
      "Ġrevol": 9193,
      "1920": 9194,
      "Ġtravel": 9195,
      "Ġ59": 9196,
      "Ġdrives": 9197,
      "Ġcoer": 9198,
      "Ġeventual": 9199,
      "Ġprobable": 9200,
      "ĠAditi": 9201,
      "Ġdiminish": 9202,
      "expressed": 9203,
      "Ġintrins": 9204,
[...]
